#version: 0.2
i n
Ġ t
Ġ a
o n
t i
e r
e n
r e
Ġt h
o r
in g
a l
Ġ s
e s
a t
ti on
Ġ c
Ġth e
Ġ p
Ġ o
a r
e d
a n
i s
Ġ m
Ġ d
r o
Ġ f
Ġa n
Ġ in
i t
Ġ w
l e
i c
Ġo f
a tion
Ġan d
en t
e l
a s
Ġ b
e t
Ġt o
Ġ re
Ġ e
c h
o d
m p
r a
u r
u s
c e
Ġ n
Ġ <
v e
l y
Ġ l
e c
Ġp ro
s t
Ġ h
u l
Ġf or
u t
g e
Ġ T
it h
u n
Ġc o
od el
Ġ L
o w
i m
Ġ g
Ġ on
v er
i g
ar n
Ġc on
a b
C T
Ġm odel
Ġe x
at e
re s
Ġ M
Ġth at
i f
Ġs t
f or
arn ing
Ġ is
p er
i l
Ġ (
Ġ A
a ch
Ġw ith
ti c
i d
Ġw e
o s
Ġ le
e m
c t
in e
for m
Ġd at
Ġ C
it y
t h
Ġ I
o l
q u
i z
p p
Ġ W
m ent
Ġw h
or k
ĠT h
Ġ S
o m
Ġa l
Ġa s
t s
a ge
r i
t er
Ġs u
es s
Ġco mp
ti ve
Ġ us
i r
g u
Ġth is
a in
ĠI n
Ġa pp
ĠW e
Ġ v
ra in
S T
Ġm et
R A
ation s
L E
w ork
s i
Ġre s
E N
I T
an gu
A B
Ġb e
a m
S U
an ce
Ġ D
J E
o re
f f
EN D
ST RA
SU B
T IT
JE CT
TIT LE
STRA CT
AB STRACT
SUB JECT
i mp
en ce
en er
Ġdat a
is t
Ġp er
a c
al ly
Ġb y
Ġd e
v el
Ġ un
o t
Ġ en
Ġn e
Ġa re
u re
h od
Ġa c
f er
angu age
Ġ E
Ġle arning
Ġmodel s
Ġmet hod
Ġ R
Ġa d
Ġp re
ĠL e
ar i
Ġ F
ig h
Ġ P
Ġ imp
ĠLe arning
Ġs h
d ing
r an
ro m
Ġin t
ti m
if ic
ach ine
p os
as ed
ab le
as k
d i
Ġc l
Ġf rom
Ġg ener
at ed
d u
tion s
b le
a p
ig n
Ġc an
Ġ O
Ġs p
u m
er s
Ġpro pos
Ġ G
Ġ N
ĠTh e
e p
e x
Ġapp ro
ic h
Ġper form
an t
Ġ it
p l
r u
ic i
Ġt ask
o c
ur al
ec t
Ġt rain
et work
as s
o us
res ent
o g
Ġcon t
Ġc h
Ġwh ich
Ġe ff
Ġa t
al l
ic al
Ġ B
Ġs y
Ġe v
a y
en ti
Ġs e
d er
t ing
Ġ H
ĠM achine
c tion
p h
Ġp ar
al u
& #
t en
m s
a g
Ġ or
Ġo ur
Ġappro ach
ul ti
Ġsh ow
g or
iz ation
ent s
Ġp a
o mp
d ic
as et
ex t
il ity
Ġperform ance
en c
o p
Ġ k
ut ation
i on
d s
s e
ran s
Ġdat aset
u al
r ate
es e
i es
gor ith
c ess
er e
L M
i e
ra m
el l
ĠL anguage
Ġres ul
Ġ qu
Ġn etwork
e ch
Ġo p
st em
Ġal gorith
ri b
Ġd if
Ġs c
ra ph
Ġin c
es t
u g
Ġcl ass
Ġmethod s
ra c
Ġtrain ing
u d
Ġf e
a re
on st
v es
Ġpro ble
Ġn o
Ġin ter
a ct
l ic
Ġb o
Ġre p
at ing
u tion
n ow
a mp
Ġsy stem
Ġac c
Ġm ulti
ĠC omp
a d
a tive
a k
al y
Ġd em
ĠTh is
Ġpa per
si on
v en
th er
Ġa r
ac k
ar ch
Ġb et
a ve
Ġpre dic
us t
v id
Ġv ari
3 9
Ġo ut
Ġd i
m b
Ġl anguage
Ġus ing
Ġ U
Ġimp ro
Ġre c
Ġex per
Ġpropos e
o ur
u res
ar ge
or t
Ġs et
Ġh igh
ru ct
Ġd is
Ġsu ch
Ġtask s
b ased
an d
Ġex pl
Ġw ork
Ġh ave
Ġo ver
l ed
ul ar
Ġd es
Ġresul ts
Ġev alu
l es
Ġdif fer
at es
ram e
ti es
Ġo b
ab ility
Ġdem onst
Ġth ese
Ġt rans
rame work
tic al
Ġop tim
ĠO ur
m ar
ar d
form ation
un d
ver s
Ġrep resent
an c
n i
Ġh as
Ġun der
Ġd ist
ug h
Ġthe ir
Ġre l
i le
v ing
on g
e ver
o f
Ġan aly
u p
v i
p ec
Ġcon s
Ġf ramework
Ġ ro
ĠComp utation
Ġs ign
w e
Ġa g
Ġk now
r ic
o st
s s
Ġeff ec
Ġn ot
ment s
im e
LM s
di tion
Ġpro vid
a il
Ġne w
Ġ r
en d
ro du
led ge
t ain
s u
ow ever
ĠE x
Ġne ural
ĠT o
om ain
th e
or s
si ve
ch ie
all en
Ġa chie
a ti
le x
ar y
Ġin formation
Ġexper im
Ġd ec
w o
Ġb ased
Ġg raph
ro ss
Ġa b
res s
Ġst ate
Ġfe at
i al
Ġproble m
Ġm ore
Ġdataset s
ti f
Ġch allen
Ġf in
s o
) ,
l ing
ific ation
as e
Ġd et
Ġpro cess
Ġal l
Ġt wo
Ġm an
Ġpropos ed
Ġsu b
o ut
is ion
we en
ĠH owever
Ġint rodu
Ġgener al
Ġdiffer ent
Ġs ol
Ġ $
Ġbet ween
Ġalgorith m
Ġal so
p ut
Ġc ap
iz ed
is tic
ici ent
ist ing
Ġl arge
el y
iz e
m m
Ġt ime
Ġbo th
Ġre al
am et
um an
Ġle arn
Ġit s
Ġb en
Ġc or
enc y
ti l
Ġp resent
Ġknow ledge
v ed
re e
N N
Ġsign ific
or y
ĠM odel
igh t
Ġre g
y p
i p
enti al
Ġno vel
mar k
Ġdemonst rate
Ġus e
s is
Ġf un
Ġint o
Ġapp lic
Ġd omain
a ce
Ġsignific ant
Ġt ech
ar t
ab el
Ġs amp
l o
i re
Ġdis c
a us
al ity
ag es
Ġnetwork s
Ġs im
n ess
vel y
Ġst ud
e arch
u rac
Ġdist rib
Ġst ruct
g es
Ġimpro ve
y n
ol og
Ġh uman
t y
as on
) .
ro ugh
re t
ar g
urac y
Ġcon st
Ġcomp lex
Ġa ut
vel op
is e
Ġus ed
Ġm e
ĠR e
ell ig
ĠC on
Ġ id
Ġas s
Ġacc uracy
od e
fer ence
Ġt ext
Ġwh ere
ch mark
Ġt ra
im it
Ġco mm
Ġde velop
Ġde ep
ir st
ici al
ur ther
Ġdes ign
Ġex isting
enti f
ec tion
Ġres earch
i a
Ġwh ile
Ġre qu
Ġbe en
Ġsystem s
Ġ es
b ust
om e
Ġ 1
Ġad d
Ġp l
is h
at h
Ġe mp
f ul
x im
Ġn um
Ġw or
Ġalgorith ms
Ġm achine
ni qu
en s
i ed
Ġanaly sis
a tic
Ġstud y
Ġwh en
i ties
per v
is ed
Ġac ross
l ine
Ġat t
as t
Ġ 2
tif icial
Ġtech niqu
ellig ence
l u
Ġexperim ents
Ġben chmark
ĠN e
i k
Ġl imit
ĠA r
o in
R L
3 4
Ġadd ress
l d
Ġclass ification
Ġ up
i b
Ġ ran
Ġb ut
e mp
s er
o ver
ĠIn t
Ġre ason
ch it
ĠL LMs
yn am
Ġe ach
il l
Ġth an
Ġn on
Ġfor m
Ġpar amet
t rain
Ġ K
ent ly
Ġ V
per form
Ġon ly
Ġex t
Ġp ri
ur r
l ation
ter n
Ġw ell
Ġsp ec
Ġeffec ti
our ce
mb ed
du c
are d
Ġm od
chit ect
Ġth rough
Ġapproach es
Ġex p
Ġa v
ol ic
ce p
Ġf irst
st an
g ing
w or
Ġcomp utation
Ġro bust
perv ised
Ġintrodu ce
Ġfeat ures
ynam ic
Ġl abel
p le
t o
le ct
Ġl ow
m o
Ġo ther
enc es
ĠP ro
Ġp os
ur ing
Ġar chitect
Ġad ap
ĠE n
e g
b er
Ġout perform
ĠA d
un ing
Ġpredic tion
Ġb i
Ġon e
in es
ti g
Ġb as
Ġh ow
dition al
ĠA n
Ġn at
for ce
en sion
Ġex ten
Ġm ak
Ġfun ction
ĠAr tificial
Ġ im
ra di
rate g
mbed ding
Ġp h
Ġvari ous
id e
Ġeff icient
Ġprovid e
Ġin put
Ġad v
Ġid entif
ĠInt elligence
em an
ten tion
ĠN etwork
Ġt yp
v al
it e
ab il
Ġs er
Ġinc re
v ol
p on
i er
in force
Ġcont ext
Ġset ting
Ġevalu ation
ĠModel s
Ġes tim
Ġreason ing
re ct
j ec
inforce ment
Ġ ver
l ow
c tions
Ġproble ms
Ġm in
as es
Ġstruct ure
eman tic
u b
u tions
i x
Ġmulti ple
Ġco mb
Ġapplic ations
Ġin st
Ġst rateg
Ġof ten
Ġpar tic
Ġoptim ization
Ġen c
Ġ y
Ġm ost
ation al
Ġav ail
Ġg ro
ĠA I
id er
Ġm at
l ish
ĠD e
ĠNe ural
im ension
Ġsp e
vers ari
anc es
iz ing
Ġimp ort
Ġthe y
Ġsy n
w ard
Ġnum ber
ro l
i el
Ġsc al
c er
Ġdec ision
Ġp r
Ġd ynamic
h er
Ġqu es
ĠT rans
Ġh e
Ġext ra
urr ent
u e
n ot
os s
Ġgener ation
oc us
. ,
res sion
Ġtechniqu es
Ġs imp
ti v
Ġse qu
Ġwith out
Ġco l
Ġd o
olic y
ĠS t
Ġen h
Ġaut om
Ġ Q
Ġsp ace
pec ific
Ġdistrib ution
v ir
ĠU n
er m
Ġob ser
Ġe mbedding
a vi
le ment
Ġavail able
vir on
arg et
Ġg i
s w
ĠR ec
Ġm a
versari al
Ġman y
Ġl oc
Ġv ia
t t
Ġ er
Ġbe h
Ġbet ter
it s
wor ld
c al
E R
am e
Ġp ot
Ġf ocus
Ġcons ider
u di
ĠW h
Ġv alu
Ġm o
ic ally
Ġf act
ie w
s ing
Ġse ver
e y
Ġ u
p ret
il ar
Ġf ine
p ar
ent al
Ġp rac
Ġrepresent ations
ik e
Ġrepresent ation
c on
oin t
el f
vi ous
ven ess
Ġth ere
c es
Ġin ference
Ġg u
Ġs emantic
i tion
ic ation
ul t
Ġen viron
ĠM ulti
Ġtrain ed
ver se
Ġde p
lu ding
y ing
Ġu til
Ġl oss
Ġsignificant ly
us ter
Ġer r
p or
Ġ j
Ġrequ ire
j ect
Ġf urther
radi ent
igh ts
Ġt arget
os e
Ġdemonst r
Ġbas el
f in
Ġcomp ared
Ġme as
stan ding
Ġco st
Ġall ow
Ġint eg
ĠA l
Ġle ver
Ġdet ection
Ġdes c
Ġm ain
Ġchallen ges
Ġt est
or al
Ġinc luding
Ġpro b
k ing
Ġpartic ular
ĠL LM
Ġ -
ĠL arge
le ction
is ing
ĠC h
Ġfeat ure
o und
Ġl at
Ġth ree
or m
ab les
ĠO n
Ġcomp ut
Ġst r
at or
Ġmet ric
Ġl ay
Ġconst rain
Ġ \
ici ency
t ed
ĠEx per
Ġbeh avi
ati s
Ġne ed
p s
ech an
Ġsever al
ĠG ener
olog y
Ġin s
Ġg o
Ġspec ific
Ġex amp
Ġnat ural
w are
Ġsc en
ĠDe ep
Ġthe ore
ĠG raph
ff icient
Ġsim ilar
an n
Ġth en
Ġs ur
ac y
Ġeffec tive
Ġd ue
ti al
ine ar
Ġc aus
Ġthe m
Ġs ome
Ġpro per
Ġcont rol
Ġappro xim
ĠP re
Ġinter pret
y s
i an
d e
Ġpot ential
du ct
Ġat tention
u il
Ġeffecti veness
en sive
ul d
Ġclass if
NN s
m all
b al
Ġparamet ers
Ġm ay
Ġ &#
Ġevalu ate
Ġm echan
Ġcomputation al
c ed
Ġm em
Ġoutperform s
od er
ves tig
Ġcomp ar
on d
Ġob jec
Ġpre vious
ar act
Ġis su
ow er
us ion
ar ds
o ugh
sw er
Ġ$ \
Ġscen ari
Ġdif f
su pervised
Ġb ec
Ġper s
a ir
Ġp olicy
Ġqu an
is m
Ġo per
ul ation
Ġcon ver
Ġcomb in
Ġs ing
i ve
t ext
le vel
Ġto p
Ġcomm un
ĠU RL
Ġmin im
Ġpro g
Ġqu ality
Ġachie ve
ĠExper im
al s
Ġk ey
ĠD at
Ġh tt
Ġsu pp
Ġcon f
P T
ain s
et y
Ġsu c
Ġrec ent
emp oral
Ġin vestig
Ġcap t
Ġen ti
Ġs mall
0 0
Ġcl uster
Ġa im
abil ities
Ġc ode
Ġst and
train ed
Ġst udi
ĠNetwork s
Ġatt ack
s h
Ġl ong
Ġfin d
Ġ ra
Ġemp ir
Ġag ents
L P
aract er
Ġad versarial
ug ment
angu ages
Ġsing le
Ġeff iciency
Ġachie ves
form er
ly ing
Ġe qu
Ġcomm on
Ġsamp les
Ġpro mp
ĠO p
Ġre m
Ġob tain
Ġinteg r
Ġen s
re h
re am
ĠC l
L LMs
anc ed
Ġarchitect ure
Ġsuc cess
o un
as ing
Ġre le
Ġgi ven
Ġpro m
Ġse arch
Ġgeneral ization
cer tain
Ġm ed
re at
od al
ĠI t
Ġan y
Ġloc al
Ġout put
Ġdomain s
g ence
Ġimport ant
rib ut
Ġmodel ing
Ġg radient
Ġrel ations
ĠF urther
Ġcons ist
Ġto ol
ĠF or
er n
Ġcont in
du ce
Ġwith in
Ġ 3
Ġpri v
Ġin d
cep t
Ġs ent
ri e
it er
Ġcomplex ity
al id
Ġinter ac
Ġoptim al
Ġres pon
Ġc re
Ġl inear
Ġstand ard
Ġl anguages
e ous
Ġunder standing
Ġal ign
Ġch aracter
Ġst ep
Ġb uil
Ġh y
o th
Ġus er
oc u
d om
i or
Ġan not
Ġb est
ro p
Ġre duc
ep end
Ġfin ding
Ġev en
Ġre inforcement
Ġl og
Ġre t
Ġle a
t e
Ġop en
iz es
as tic
Ġme an
at ure
Ġd uring
Ġv alid
Ġimp lement
Ġsimp le
Ġinc or
ar s
Ġle vel
Ġfun ctions
Ġp at
c l
Ġab ility
ĠTh ese
Ġ ve
ĠF in
Ġgener ate
Ġtrans fer
Ġlimit ed
r id
Ġchallen ging
Ġc urrent
Ġag ent
om m
r al
v ic
Ġchallen ge
Ġdi verse
Ġt r
Ġc all
Ġh and
Ġf ul
iel d
ag ing
cal e
v iew
a f
Ġs ch
Ġwor d
Ġhtt ps
or ing
v ari
er ated
Ġab out
Ġerr or
og ni
Ġques tion
Ġfe w
Ġpri or
ĠS p
Ġstr ong
Ġor der
Ġp ower
Ġp ub
gu e
in al
Ġscenari os
b o
Ġanaly z
Ġacc ur
Ġrobust ness
ti t
Ġautom atic
Ġw ay
vol ution
Ġcomp reh
k s
Ġt er
at ely
train ing
u ally
Ġdi rect
Ġp op
if ied
Ġun certain
ag n
ĠWh ile
Ġemp lo
Ġprovid es
Ġof fer
t uning
ut ure
Ġadap t
Ġcon duct
Ġen d
Ġs ame
Ġter ms
Ġc ri
od ing
ER T
Ġpat tern
ĠM ore
Ġs o
Ġsol ution
Ġmem ory
Ġbo und
Ġapp l
Ġextra ct
re g
Ġtheore tical
at ch
ic s
Ġgener ated
Ġp o
Ġincor por
Ġs oc
al th
ĠDat a
ti vely
u ous
imension al
ĠA s
en se
Ġprocess ing
c i
Ġstudi es
Ġ ed
ĠA ut
si ble
Ġdep end
Ġmeas ure
Ġsetting s
Ġs elf
ogni tion
ar k
the tic
Ġran dom
ling ual
ĠR L
Ġdi al
Ġexpl ore
Ġspe ech
m ore
h ip
Ġser ies
Ġass ess
N et
ore c
ed erated
Ġtrans lation
Ġcap abilities
Ġe m
ru ction
en g
a x
im in
Ġeffecti vely
ay es
Ġch an
Ġf uture
f ore
Ġd ocu
Ġbenchmark s
Ġsamp le
Ġon line
our ces
ow n
on e
Ġl ike
Ġto k
Ġmetric s
ch astic
g g
Ġf ound
sh ot
ĠFurther more
Ġpredic t
Ġstrateg y
Ġ2 0
Ġsu per
Ġgraph s
lo bal
e ad
Ġexamp les
ing u
s es
s cale
Ġgener ative
Ġin f
s pecific
Ġin di
Ġcor re
ul tim
o v
ect ed
od es
Ġim age
Ġpub lic
i ble
Ġ- -
is ual
Ġlat ent
og en
Ġa m
Ġd er
Ġh el
s p
Ġc ase
Ġdiff ic
ul es
Ġp res
et her
ĠB ayes
at ors
Ġpriv acy
Ġstrateg ies
v alu
id ence
u ch
ol d
in d
Ġenviron ment
Ġembedding s
Ġse lection
ak ing
Ġidentif y
ĠB y
Ġincre asing
ire d
en si
Ġlearn ed
Ġm is
Ġparamet er
ab ly
Ġan swer
ex ts
Ġcomp on
w ards
ver age
Ġimp act
Ġshow n
o res
ĠFin ally
ri p
Ġproper ties
ec ond
n er
it ing
Ġqu er
Ġconst ruct
tim e
v ant
Ġbi as
Ġprac tical
Ġdesign ed
ann ing
A R
Ġreg ular
rib ution
Ġexpl an
Ġst atis
Ġobser v
pl o
Ġf ac
Ġpredic tions
Ġappl ied
r y
Ġs ize
Ġpa ir
til l
e f
er o
Ġg ap
Ġw id
Ġre ward
g lish
olog ical
Ġenh ance
Ġsequ ence
Ġindi vid
ti z
Ġcapt ure
Ġcri tical
r on
Ġsu m
or ation
Ġuncertain ty
Ġsyn thetic
Ġbehavi or
Ġrel i
ain st
orec as
Ġs ource
ĠD es
Ġc ross
Ġimpro ves
Ġarchitect ures
Ġallow s
Ġret rie
ier arch
Ġde f
eng th
ĠCon t
Ġco un
Ġhigh l
Ġapplic ation
Ġw ill
ar ant
Ġre ve
Ġor ig
Ġmak e
Ġd own
A N
Ġr is
Ġlabel s
Ġconver gence
arant e
Ġve ct
ĠRe inforcement
ĠU sing
Ġdisc us
le c
Ġp ol
Ġempir ical
Ġno ise
Ġmechan ism
Ġup d
Ġw as
ur b
ĠA c
Ġse lect
Ġcont r
b ack
Ġs af
Ġdevelop ment
Ġfinding s
Ġtra ditional
Ġl ack
Ġtyp es
Ġindivid ual
Ġg lobal
Ġsupp ort
ĠS pecific
Ġa ugment
Ġag ainst
ri ven
ĠOp tim
Ġin vol
c ial
o od
Ġexperim ental
Ġconstrain ts
e ti
Ġsc i
Ġf air
Ġem er
Ġ et
ĠA pp
d imensional
o uld
Ġtechniqu e
anc ing
u c
et er
Ġbasel ine
ic it
Ġd imension
ĠMore over
ultim odal
Ġgu arante
Ġb l
i ally
dition ally
Ġpattern s
Ġben ef
Ġn am
on s
Ġam ong
par amet
ol low
rain ed
ĠSpecific ally
Ġcluster ing
o k
i res
Ġbasel ines
i ly
ĠBayes ian
st ream
Ġb ack
Ġsol utions
Ġresul t
ud e
Ġf ail
Ġexten sive
ab lish
du ction
Ġp ost
Ġdynamic s
Ġ .
Ġin dic
Ġof f
Ġcall ed
Ġhe alth
ĠQ u
Ġma xim
Ġsamp ling
Ġmak ing
et s
Ġ i
A I
Ġobjec tive
Ġ rate
or d
h ib
est ablish
Ġt emporal
Ġpop ular
Ġgro up
Ġs till
Ġsuper ior
Ġsim ul
ern el
Ġhy per
tion al
ate gor
Ġinc l
Ġst o
Ġvalu e
Ġcaus al
epend ent
on al
Ġus ers
Ġdet erm
Ġexpl ain
o gue
Ġde plo
Ġques tions
Ġsch em
Ġit er
ĠM et
p us
Ġin i
Ġknow n
Ġimprove ment
Ġsum mar
i tig
a v
Ġsoc ial
os ition
Ġl arg
p ite
Ġrelations hip
oin ts
Ġcon n
Ġdet ect
Ġcompreh ensive
ix ed
tic ally
res sive
Ġdesc rib
orecas ting
Ġcontin uous
Ġdistrib utions
eter ogen
ĠR es
Ġinvestig ate
ment al
ri x
Ġdisc over
Ġset s
i ers
ra ct
g y
ĠD is
Ġv isual
agn os
Ġen ables
Ġc ru
Ġran ge
ĠEn glish
Ġwor ds
ore d
se qu
oc i
Ġaccur ate
p ect
Ġenviron ments
Ġhigh er
Ġmat ch
i ent
Ġnum er
Ġrequ ires
Ġun i
Ġ establish
ak e
ĠI mp
ten sive
Ġissu e
ar se
Ġde fin
le arning
D P
Ġ 4
Ġ 0
Ġachie ved
Ġprom ising
istic s
Ġsto chastic
Ġattack s
ib r
Ġwork s
pec ially
Ġph ys
Ġf ield
pp ing
ĠG PT
Ġne g
now ledge
orm al
M s
Ġorig inal
Ġsu pervised
Ġ 5
ĠS y
Ġlay er
Ġcru cial
Ġen g
Ġimpro ved
in ical
volution al
ĠW ith
tiv ity
Ġrem ains
Ġus es
Ġlimit ations
Ġthe ory
l abel
ĠTrans former
ĠR ep
Ġcon cept
Ġh ard
Ġlow er
Ġins ights
Ġfe ed
Ġth us
w ise
re qu
ac es
ay s
an ts
Ġtrans form
Ġc ategor
Ġth ose
Ġa ble
ad e
Ġc ases
Ġpos sible
Ġestim ation
ĠCl ass
Ġcommun ication
Ġw ere
ĠPre dic
Ġver y
res pon
si an
un ds
Ġlay ers
Ġl iter
es ting
ĠN LP
on om
Ġexpl icit
Ġexpl o
Ġsent ence
su mp
Ġcomp eti
Ġm itig
Ġre duce
Ġrec ognition
Ġsp ati
ĠD et
Ġad dition
t ask
Ġcont ent
Ġreg ression
) $
A S
Ġch o
M L
Ġm on
Ġes pecially
Ġhel p
ti ves
c ent
Ġde g
t un
Ġbe ing
Ġsol ve
Ġrel ated
ati vely
Ġt e
k now
ĠR o
Ġdeplo y
Ġdo es
Ġdown stream
Ġdirect ly
Ġcomp le
of t
ad ig
Ġas sump
Ġpre c
Ġimpro ving
Ġn ode
Ġass oci
an g
ec ess
al le
Ġsh ort
di tions
er ing
Ġj oint
Ġc er
ĠK nowledge
u le
abil istic
line ar
Ġpresent s
Ġex hib
Ġ z
Ġf ollow
ierarch ical
Ġy et
Ġshow s
vic es
Ġris k
Ġal tern
ur n
Ġgo al
Ġdevelop ed
Ġissu es
ruct ure
ĠExperim ental
Ġparticular ly
Ġprob ability
Ġimprove ments
Ġl ess
enti ally
Ġsc ore
Ġe as
Ġunder st
Ġaim s
Ġmain tain
Ġresul ting
Ġag g
Ġc al
Ġadv ant
iel ds
Ġcor pus
Ġmed ical
ram m
Ġrele vant
Ġcor respon
Ġp oints
Ġpar adig
pec tive
2 0
Ġsimilar ity
o u
Ġtech n
alle l
know n
Ġini tial
D E
ĠP ar
Ġg reat
Ġad ditional
Ġpr in
ĠD ec
ĠA t
Ġvalu es
Ġac cess
Ġwid ely
Ġvari ables
el i
Ġ ent
ent ral
Ġcol l
Ġcor rect
ĠExperim ents
ol ution
Ġmat rix
Ġimport ance
Ġen ab
ĠIn ter
enti ment
Ġgener ating
Ġanalyz e
Ġ ge
Ġsub stan
Ġa verage
ut ed
Ġunder lying
Ġprac ti
ĠAd ditionally
Ġcon ditions
mo un
ic e
Ġwe ights
ath er
Ġhigh ly
Ġ 9
ici es
om es
Ġextra ction
r in
Ġpa ti
l ike
Ġspe ed
Ġalign ment
Ġa moun
Ġ ess
enc ies
Ġco uld
is ts
ve x
es is
ĠD if
om et
i tive
ĠEx pl
Ġ if
Ġsp arse
Ġwe ight
Ġh eterogen
p ro
Ġatt ribut
ar ly
il it
ĠF e
ĠAn aly
Ġachie ving
Ġstruct ures
Ġliter ature
Ġintrodu ces
ar m
Ġdi re
em ble
ingu istic
in ary
Ġclassif ier
e ars
} $
Ġre view
ĠS h
Ġac tion
Ġpl anning
Ġcomp are
Ġefficient ly
Ġimp lic
Ġreve al
Ġ 8
Ġsub s
Ġk ernel
Ġp oint
Ġexten d
ener gy
m e
Ġsaf ety
ĠM L
Ġemplo y
th ough
Ġun supervised
Ġagg reg
ĠS e
Ġ J
Ġb el
Ġid e
t urb
Ġprovid ing
o b
ĠB ERT
Ġcon vers
Ġcl inical
ens or
aus e
Ġwh ether
ith er
Ġa ff
d riven
as tive
Ġfac ilit
Ġro le
Ġa ct
ĠEx tensive
a ware
Ġad op
Ġf our
Ġstatis tical
ĠRec ent
is on
Ġpredic tive
Ġretrie val
ff ic
or ies
Ġn ecess
Ġpro t
o ff
Ġm uch
Ġ energy
f act
Ġfair ness
Ġf orecasting
an ds
ib ility
Ġdiscus s
Ġz ero
Ġwor ld
Ġbo unds
Ġdial ogue
Ġpol icies
ĠTh ere
Ġuse ful
Ġim ages
i ved
Ġn odes
Ġexpl oration
ĠT ext
Ġinf lu
ay er
A T
j or
p re
ĠE valu
ĠSy stem
Ġtool s
aus sian
if t
ep ar
Ġprocess es
Ġp ath
M T
Ġpres er
Ġclass es
A E
Ġinterac tions
Ġapp ly
Ġre ly
Ġc ur
in ce
Ġstructure d
Ġmean ing
Ġapproxim ation
Ġtyp ically
Ġcoun ter
ret e
Ġt im
b y
d en
Ġful ly
Ġ 7
Ġm ultimodal
vers ity
if y
Ġbec ome
Ġexamp le
Ġrec ently
Ġscal e
Ġre f
Ġvari ety
Ġres ource
i i
Ġma jor
Ġdocu ment
Ġdemonstr ated
Ġform ul
Ġw ide
Ġcompon ents
an eous
l ated
Ġpro ve
Ġgro w
ĠPro cess
ĠAd ap
rain ing
Ġpr im
Ġpro duc
Ġpro ced
Ġfeed back
ab or
Ġg en
c ing
Ġmet a
Ġcol lect
Ġf requ
Ġenab ling
Ġex am
Ġinter est
Ġspec ial
h ood
Ġsystem atic
ĠF ederated
Ġv iew
tic s
Ġdiffic ult
Ġf il
Ġdistrib uted
Ġres ources
und a
\ %
Ġsol ving
r imin
Ġs ensi
as ter
Ġsuccess ful
Ġpromp t
Ġlever aging
I D
ip el
Ġadap tive
Ġm ath
g et
ti ally
em i
Ġautomatic ally
is ms
ĠB ased
Ġexplan ations
Ġtra ject
Ġ 6
Ġpair s
Ġfact ors
Q A
ion s
ro und
Ġparadig m
Ġper turb
Ġint elligence
in k
Ġenti ty
g ed
Ġexperim ent
Ġan om
Ġto wards
Ġform al
Ġevalu ated
Ġs econd
Ġf unda
Ġpar allel
Ġcer tain
ĠG aussian
ra ction
Ġ el
Ġful l
Ġcompeti tive
Ġrec omm
Ġgu id
Ġf lex
c ome
Ġe mo
Ġgo od
Ġe ither
ĠApp ro
ĠDes pite
or der
ĠGener ation
olog ies
Ġtok en
Ġlea ding
Ġadapt ation
g ent
ve y
a tical
ĠC o
Ġl inguistic
mo oth
Ġl o
Ġs k
igh b
{ \
o id
an s
Ġquan tif
is y
Ġobtain ed
Ġsu ff
f for
Ġc r
$ -
Ġsc ores
Ġar tificial
ĠOptim ization
Ġinterpret ability
Ġrespon ses
f ter
Ġunderst and
Ġac tiv
el er
Ġle ad
Ġmulti lingual
Ġreg ret
cep ts
Ġst ates
m ath
Ġin her
ĠF irst
Ġprob abilistic
Ġadv ance
Ġvect or
Ġsent ences
Ġab st
Ġf low
Ġs epar
ab ular
Ġy ears
Ġlabel ed
Ġlea ds
Ġp ipel
Ġt ack
Ġenti ties
Ġcontext ual
ĠRep resent
G D
ĠAnaly sis
Ġlever age
p ri
Ġac tions
Ġess ential
ĠF L
Ġinput s
op tim
Ġcont ain
Ġinst ances
Ġb ro
Ġeng ine
Ġre pl
Ġtra de
Ġev idence
Ġobser ved
Ġexper t
Ġr un
Ġerr ors
b rid
l ess
os ed
Ġh ist
Ġeff ect
Ġlearn s
ĠTh rough
Ġgro und
Ġs oft
Ġt erm
b it
Ġsu gg
Ġsugg est
Ġar tic
ult aneous
m aking
ĠM o
Ġoutput s
Ġre st
tiz ation
ĠDet ection
d omain
it al
yp oth
Ġrespon se
Ġcon ven
ĠM ark
fer ences
Ġre duction
Ġevalu ations
Ġclassif iers
M A
Ġpar t
C L
Ġsh ould
in ation
qu ality
Ġm ade
ing s
ĠEx isting
entif ic
Ġs entiment
f ree
Ġ X
ari es
Ġassoci ated
Ġguarante es
Ġr ules
Ġdet ail
e fficient
ĠUn der
e ech
ĠRe g
Ġ ill
Ġal ong
Ġbec ause
Ġreduc ing
Ġdec omp
en ds
Ġcon cepts
Ġincre ase
Ġequ i
Ġtrans former
ĠT ra
Ġlever ages
Ġnat ure
Ġmak es
Ġtra ffic
ST M
vic e
Ġpracti ce
re d
Ġin form
Ġpropos es
cer n
v ent
Ġt ri
Ġenc oder
Ġsu it
Ġh ierarchical
ist ribution
Ġfunda mental
oc k
Ġdi agnos
Ġempir ically
Ġstruct ural
Ġcorrespon ding
Ġdist ance
Ġt ree
Ġpro duce
m ed
Ġb al
Ġregular ization
Ġwh at
Ġcomput ing
Ġvalid ate
Ġbel ie
ĠAut om
Ġspati al
s ource
P O
g ment
Ġcon cern
qu e
Ġl ik
Ġpers onal
or ding
til lation
Ġen able
Ġmechan isms
Ġde vices
Ġstep s
is es
Ġtyp e
Ġn ormal
Ġlevel s
at form
Ġtok ens
Ġg ame
Ġe ffor
Ġmath em
ĠB i
Ġrelationship s
Ġt exts
ramm ing
c ur
it ting
ci pl
Ġl ength
b ility
Ġacc oun
Ġf ederated
Ġs atis
bo x
Ġhighl ight
Ġno isy
Ġsequ ences
Ġdisc rimin
Ġsim ultaneous
Ġquer y
Ġdesc rip
Ġschem e
Ġsur p
Ġamoun t
Ġh ypoth
Ġautom ated
Ġens emble
og raph
F L
Ġres pec
ĠAd versarial
Ġconsist ently
id den
Ġrequire d
1 0
Ġfil ter
Ġev ent
rop y
Ġdecision s
o enc
Ġpower ful
Ġdemonstr ates
Ġinterpret able
ĠM an
Ġinterac tion
Ġf ixed
Ġph en
ĠT ask
B ERT
ĠClass ification
ec k
Ġmeas ures
Ġpublic ly
D A
ut e
ran si
L U
l ations
Ġnumer ical
Ġcompar able
Ġsimp l
Ġdiff usion
ust om
Ġrespec tively
Ġpredic ting
ix t
Ġdist in
ro w
Ġdi versity
Ġcon volutional
ĠT raining
p id
Ġh owever
Ġdocu ments
Ġchan ges
Ġaugment ation
Ġdeterm in
Ġimplement ation
ir ing
Ġhe ur
Ġhuman s
Ġexhib it
Ġacc eler
Ġg ain
Ġm ap
Ġover all
ra w
Ġexper i
Ġco g
Ġrel ation
G PT
a ding
ur pos
i v
Ġpro f
a w
Ġpers pective
om en
Ġaltern ative
at ural
Ġcl i
Ġrecomm end
Ġc le
age ment
Ġcap ability
ĠOn e
Ġtop ic
Ġbuil d
Ġobserv ations
Ġrem ain
Ġsign als
Ġfact or
Ġcharacter istics
ĠS u
ag ent
pec ts
1 9
sion s
paramet er
ason ing
Ġprog ress
Ġbi ases
tern al
C A
onom ous
Ġnam ed
igh ting
Ġbuil ding
Ġpl ay
ĠT ime
ĠE mp
Ġcost s
Ġexplo it
ĠGener al
ĠG P
Ġsh ared
Ġevalu ating
ari ly
ĠP er
Ġge omet
Ġlarg er
Ġcog ni
Ġintrodu ced
Ġf am
Ġsp aces
Ġo c
Ġb and
Ġmod ule
Ġutil ity
Ġv ary
Ġeffec ts
as h
Ġcomp ression
Ġprovid ed
ĠAl though
Ġpl atform
ĠMark ov
Ġnew s
Ġinst ance
Ġwe ak
Ġar gu
Ġapproxim ate
Ġconduct ed
Ġw r
Ġt reat
g ener
ĠM e
Ġestim ate
Ġdisc rete
label ed
ĠPredic tion
Ġidentif ying
Ġresearch ers
Ġb ase
Ġcan not
Ġoffer s
ĠA S
Ġrec onst
Ġsequ ential
E n
mb olic
O D
Ġheterogen eous
Ġconven tional
Ġsci entific
Ġex ec
Ġass um
ag ation
Ġincreasing ly
Ġin duc
or ts
Ġmethod ology
Ġs ources
Ġne ighb
am es
Ġquer ies
ĠN atural
ructure d
Ġ ru
Ġcont ribut
Ġin fer
Ġd ri
Ġass ign
ĠE fficient
Ġl ight
Ġus ually
ra d
ĠTh en
Ġav oid
Ġpromp ts
Ġimplic it
Ġcon dition
Ġrep ort
Ġf aster
Ġcompar ison
Ġconsist ent
ter m
Ġtext ual
Ġsyn th
Ġphen omen
Ġcommun ity
Ġsu g
Ġte ach
Ġt re
ĠS im
Ġ1 0
tun ed
Ġmo lec
Ġchan ge
Ġp e
b f
ar ing
I F
s c
Ġsug ges
ĠRo bust
Ġe ver
Ġsp ect
Ġreduc es
Ġas pects
Ġun known
Ġman ner
Ġind ust
Ġcap able
se en
Ġev ents
Ġclass ical
Ġsummar ization
il i
Ġneg ative
Ġp ass
Ġcomput e
Ġ Y
ĠCh in
ĠC O
Ġcombin ation
Ġsatis f
Ġc ustom
Ġv ision
S A
Ġt ransi
ĠRe asoning
od ers
ĠGener ative
ĠI m
Ġsyn t
vari ant
pp ort
al ities
Ġpipel ine
h ead
Ġenh ancing
Ġt esting
Ġed ge
ĠF ramework
B ased
d ers
Ġdescrib e
Ġshow ing
Ġspecific ally
en ch
optim al
Ġres pect
Ġco re
Ġsimultaneous ly
Ġsign al
Ġill ust
c are
ens ity
Ġb inary
Ġcontr astive
Ġad j
Ġt ake
Ġc are
Ġf ast
Ġac qu
Ġsp ars
Ġcontr ast
h ic
Ġsemantic s
Ġbenef its
ĠV ari
Ġmaintain ing
ac ity
Ġdesc ent
s y
Ġsim ulation
Ġder ive
Ġsu fficient
or ph
Ġapp lying
ĠOp en
Ġle x
Ġtack le
Ġcan d
P I
ĠP ri
Ġt uning
Ġscal able
Ġperform s
Ġt rac
o per
Ġcand id
Ġm arg
Ġtim es
Ġlog ic
I n
g an
Ġra pid
ĠAppro ach
Ġex ternal
em b
Ġinter n
Ġthere by
t le
ĠWh en
Ġproced ure
ĠH uman
i ous
Ġdiscover y
Ġh idden
ĠS elf
Ġru le
Ġoff line
Ġs it
Ġenc oding
por a
ĠImp ro
Ġgeneral ize
Ġannot ation
Ġon es
Ġun seen
- -
es ts
Ġincl ud
is ation
ĠS econd
ot yp
Ġreli able
Ġpro duct
Ġr ich
Ġun ified
c omes
ĠEx t
t ex
Ġcon ditional
Ġmatch ing
Ġst ream
Ġcre ate
Ġdemonstr ating
Ġincorpor ating
ĠT ow
Ġprin cipl
ut h
Ġinflu ence
Ġcli ents
r ing
Ġs ec
Ġanswer ing
Ġappro pri
Ġphys ical
Ġr ather
ĠP l
ap e
ic k
Ġassump tions
Ġt ru
Ġcompon ent
T S
ra f
Ġbl ack
Ġdeploy ment
Ġhy brid
Ġcomputation ally
Ġdis e
ĠDis c
ĠD ynamic
Ġcont exts
ro g
ra ms
Ġsubstan tial
Ġpro p
Ġa fter
Ġconstrain t
cl ass
g rained
ĠR et
Ġs emi
Ġmitig ate
RA G
ixt ure
Ġindic ate
Ġtr ust
S L
Ġidentif ication
Ġhand le
ĠH ere
ĠTrans form
ak es
id ed
Ġprevious ly
entral ized
ĠChin ese
o ther
ĠThere fore
Ġmis sing
Ġun c
ed ical
Ġmed ia
bit r
Ġmo tiv
Ġadv ances
Ġpos itive
Ġaccur ately
Ġm ust
Ġpr uning
res ource
T A
radi ents
Ġdevelop ing
Ġrel ative
Ġexp ensive
Ġvect ors
ĠMet hod
eli hood
Ġc ar
Ġscal ing
Ġcombin ing
p ort
Ġexper ts
Ġconsider ed
ĠEmp ir
Ġdepend encies
Ġcr iter
Ġs ince
ĠIn st
ĠS ub
Ġsmall er
Ġmathem atical
jec tive
Ġs mooth
em ic
Ġexp ected
Ġpartic ip
Ġconsist ency
mm et
Ġcor pora
Ġadv anced
ir c
Ġs ens
w h
ul ts
ac tion
A C
e ff
ĠAl gorith
Ġfin al
ru gg
Ġpati ent
Ġpresent ed
Ġexplicit ly
Ġintegr ation
Ġind ependent
Ġattribut es
Ġr ates
Ġdistin ct
Ġbo ost
ĠN on
ĠIn formation
g raph
Ġcomb ines
Ġallow ing
y ond
Ġbe yond
Ġobjec tives
Ġwh o
Ġcon vex
Ġcommon ly
Ġannot ated
Ġst rugg
con text
Ġt ail
Ġproper ty
Ġd raw
Ġpo ly
Ġf ive
z z
il ities
Ġinst ead
Ġoptim ize
Ġf ields
er ior
vers al
rin s
Ġare a
Ġac tive
Ġar bitr
perv ision
Ġst y
ibr ation
Ġatt emp
ol ving
ĠQu es
ĠM in
Ġre mark
ĠH y
Ġengine ering
u zz
if ying
Ġex ist
ĠC or
Ġadvant ages
ĠC ode
c ip
ĠCh at
fin ed
Ġprec ision
Ġmod ern
ĠRec ently
Ġuni que
Ġaccoun t
Ġm ark
Ġst ability
em ent
Ġder ived
Ġsuff er
ĠTrans lation
Ġrequ iring
Ġco m
Ġobser ve
Ġvari able
ĠE mbedding
re lated
fact ual
Ġhealth care
Ġgroup s
Ġanom aly
Ġre ach
ĠP h
all uc
Ġrest ric
Ġt emp
Ġrequire ments
Ġfound ation
Ġinst ruction
Ġcogni tive
vari ate
Ġre wards
A D
Ġaut onomous
st ep
Ġd el
Ġmon it
ig u
med i
an k
i tions
Ġsensi tive
Ġsuit able
Ġpo or
Ġcol lection
Ġcon c
urpos e
Ġsubs et
Ġupd ates
S E
re ad
Ġeas ily
Ġex act
Ġfacilit ate
Ġins p
o T
ĠEvalu ation
Ġdiffer ential
C N
ul ty
ĠS ur
Ġens ure
Ġma pping
Ġdire ctions
Ġnon linear
ri es
Ġoper ations
Ġutil ize
ĠG radient
m odal
Ġcomput er
Ġcorre lation
Ġexplan ation
Ġf a
ĠDif fer
Ġincl ude
Ġsit u
Ġover come
ĠTow ards
Ġw ould
c rip
Ġb rid
we ight
Ġvari ance
Ġre fer
Ġ Z
Ġnecess ary
Ġadvant age
Ġcons ists
Ġconf idence
Ġpre trained
sw ers
in ess
il on
ĠD i
tex tit
ac tic
Ġcombin ed
Ġinher ent
Ġinter ven
( \
Ġsur vey
a ving
Ġ `
ru g
R E
swer ing
ugment ed
Ġcap acity
Ġcollect ed
ĠDec ision
Ġe p
Ġup on
ann el
Ġacc ording
r ising
Ġconn ec
Ġbro ad
Ġdefin ed
Ġassump tion
ĠO ver
Ġminim al
Ġl ink
l ayer
d ed
Ġg ames
Ġev olution
Ġfocus ed
Ġcoll abor
Ġout comes
val ent
Ġrec urrent
b ers
Ġse gment
Ġstr ength
f ace
ĠAt tention
Ġv ide
Ġman if
Ġpromp ting
t al
a im
Ġrec over
sequ ently
Ġin n
at a
Ġbe fore
Ġactiv ation
L I
pro cess
op e
ric es
Ġb atch
Ġstudi ed
ĠTransform ers
Ġfin ite
iz ations
Ġenti re
Ġvary ing
Ġre mo
Ġde al
Ġran king
ĠB en
ĠG NNs
Ġpar tial
Ġframework s
g al
Ġwe b
ĠS emantic
Ġun labeled
Ġbehavi ors
Ġeff ic
Ġdec oding
Ġprog ramming
ĠG NN
Ġp ast
ver aging
a pp
ot t
Ġjoint ly
Ġcomp osition
Ġe le
Ġnam ely
Ġide a
Ġestim ates
Ġappropri ate
L e
Ġpre ference
c omp
Ġever y
Ġan swers
am b
A P
ĠM on
M I
Ġran k
F T
j ection
Ġeffic acy
S P
Ġgi ve
Ġim bal
ul ner
Ġg radients
amp ling
rins ic
Ġquan tization
ur ally
Ġe arly
Ġcal c
Ġperform ed
Ġenh ances
tim es
ĠN o
ĠR el
Ġvari ational
ĠH e
Ġdiffer ences
Ġscenari o
Ġsuccessful ly
if e
Ġintegr ating
at ory
n ing
Ġreli ability
Ġj ud
Ġtru e
si vely
Ġph ase
ĠSp eech
ĠIn ference
Ġincorpor ate
ellig ent
Ġupd ate
Ġutil izing
Ġpre ferences
Ġab s
op le
Ġdis tillation
onst rained
Ġext re
in king
d ependent
ing ual
Ġse e
ĠRec ognition
p ol
Ġst age
y c
ĠM ost
Ġinvol ves
Ġsk ill
Ġvari ants
ĠDat aset
og n
ĠK G
iz er
Ġcho ice
Ġcon cl
Ġaddress es
Ġhard ware
Ġpot entially
if orm
ĠP ers
Ġ20 2
IF AR
Ġo w
Ġbelie f
ĠA ss
Ġsci ence
or ical
m an
w it
ĠS earch
Ġstrugg le
Ġinn ov
Ġscal ability
ĠUnder standing
Ġf ar
Ġman agement
Ġphys ics
Ġre ce
Ġgener ates
Ġor gan
er ial
sp ace
Ġsh ift
ou ra
Ġremark able
ĠD ial
Ġreduc ed
Ġpati ents
Ġperform ing
Ġcl os
l en
Ġve hic
Ġdef ine
u mp
res h
Ġv ulner
Ġm ess
Ġco ver
ep s
Ġinclud es
N I
Ġconf ir
Ġfocus es
Ġm ask
ĠD ist
text bf
oun ter
l er
ti ty
rib utions
Ġaut oenc
Ġdiffic ulty
st ructured
Ġtheore tically
Ġfe as
Ġspars ity
ut ing
Ġdimension s
Ġcomple te
Ġdire ction
ĠSystem s
ĠL og
Ġintrodu cing
Ġneed s
ex pl
ur ity
Ġemer ged
Ġintegr ates
ĠRepresent ation
ĠQues tion
00 0
Ġy ields
S C
medi ate
Ġstud ent
Ġaggreg ation
Ġtraject ories
Ġpos ition
Ġbenef it
Ġflex ible
Ġgrow ing
ĠL ong
mp t
Ġassess ment
w ays
Ġcategor ies
ĠE s
Ġmod alities
our se
ĠN ot
ru ctions
cep tion
Ġexp ression
ĠC IFAR
ĠS uch
Ġexp on
Ġex c
ĠCon text
Ġm er
ĠA g
ari ties
ĠD omain
Ġreal istic
Ġup per
ut ter
ĠS yn
Ġsh if
m is
get ting
ĠC omm
Ġform ulation
anc ial
Ġintern al
em s
ol ds
M C
ran k
ig ur
b i
Ġar t
L LM
Ġne ur
re p
Ġver sion
ar ding
ver gence
Ġconstrain ed
Ġdiffer enti
Ġconsider ing
Ġvalu able
m a
Ġs izes
om ial
anc y
Ġdynamic ally
Ġgu ide
Ġref lect
Ġoptim izing
vari ance
ĠModel ing
Ġextract ed
ĠA tt
it tle
ĠM em
Ġemplo ys
ĠQ A
Ġ20 1
ĠDif f
x t
Ġconst ruction
Ġoffer ing
id es
Ġm ight
ĠW ord
Ġh alluc
ec tive
Ġaddress ing
ĠAdap tive
Ġan other
Ġon t
le vi
Ġgener ally
Ġe lect
ĠEn h
ul ate
Ġcl aim
Ġincre ases
Ġdat ab
ĠBen chmark
Ġcomp lement
urr ently
Ġr ig
d istribution
Ġar gue
Ġanalyz ing
G AN
ĠCon volutional
Ġsu pervision
Ġarbitr ary
Ġass ist
il d
ec ts
Ġus age
Ġquan tit
Ġsch ed
Ġy ield
Ġiter ative
Ġanaly ses
Ġare as
l i
t ation
Ġdepend ency
Ġartic le
ĠRes ults
ĠG AN
Ġannot ations
udi o
sp ired
Ġd r
ĠF ed
Ġobserv ation
Ġco her
Ġpe ople
ĠC ross
Ġwh ose
Ġal levi
ĠD NN
Ġsurp ass
Ġpres ence
rac tive
Ġdeterm ine
Ġprin cip
ĠPro g
oc al
Ġlog ical
Ġperturb ations
Ġfollow ing
g ether
Ġto gether
ĠNe w
% ,
Ġent ropy
and om
Ġlik elihood
Ġmeaning ful
ĠChat GPT
ĠC aus
Ġemploy ed
ĠS er
M E
un ction
Ġbuil t
gener ated
^ {
Ġtest ed
Ġpre training
ĠE ff
Ġobjec ts
Ġaut h
Ġequ ations
Ġexperi ence
en ding
u ro
h as
en tion
Ġpriv ate
e ar
Ġenh anced
os ing
Ġcont ribution
Ġe mbed
Ġdetect ing
a ds
Ġto tal
N LP
Ġdeg rad
se ud
ĠOn line
ress ed
Ġne ar
ĠUn like
Ġre ference
ĠCont in
Ġt urn
Ġfor ward
Ġne xt
Ġenc oura
v ance
or ting
Ġvalid ation
Ġconcern s
Ġtraject ory
Ġreve als
Ġle ast
$ ,
ĠPro b
ĠG i
Ġaff ect
ĠGP U
ĠB o
rie val
Ġcluster s
Ġs l
Ġdem and
Ġconf igur
Ġens uring
ĠMet a
Ġ utter
Ġf usion
Ġ ir
Ġhypoth esis
u es
Ġg ains
ill ion
Ġc irc
Ġf ace
en der
ĠS c
Ġab ilities
Ġind epend
Ġmaxim um
Ġdist ingu
Ġdistingu ish
Ġimplement ed
ach ines
Ġfam ily
Ġemo tion
b ot
Ġdetail ed
ĠTh us
ĠEmpir ical
Ġexam ine
Ġspe ak
in s
ĠM ultimodal
ĠAc c
Ġadvance ments
ĠR andom
u x
ĠP olicy
ru p
Ġrel ies
or iz
Ġdise ase
f itting
us e
Ġv i
Ġre d
or ous
Ġth ough
Ġrep rodu
Ġpost erior
P E
Ġsur rog
Ġcompar ing
Ġb rain
Ġsynt actic
Ġeffor ts
Ġmonit oring
uzz y
Ġpreser ving
Ġteach er
process ing
Ġmin ing
Ġillust rate
ĠS par
Ġcapt uring
Ġsubstan tially
ĠMan y
Ġh arm
ĠAS R
Ġob ject
Ġmean s
Ġb ott
ĠF ine
C on
Ġt ag
Ġt end
ĠL o
Ġst able
e ity
l og
n omial
ĠAutom atic
om ing
Ġd ig
Ġfor getting
ĠGi ven
Ġintegr ated
Ġd rug
oc ation
A M
ĠL STM
Ġc ent
h e
ĠEs tim
Ġcomb ine
Ġspecial ized
Ġhtt p
Ġabst ract
Ġout l
Ġreg ions
Ġheur istic
re ak
Ġrec ogn
emp h
ĠIm age
Ġcandid ate
Ġselect ed
Ġdec re
Ġlarg ely
Ġsystematic ally
pl ay
Ġapplic ability
Ġprim arily
Ġow n
Ġmat rices
Ġguarante e
n e
Ġc entral
Ġd ual
Ġdecomp osition
er ed
Ġf l
Ġcont ains
Ġhist orical
f low
Ġsimul ations
ent ang
Ġoptim ized
Ġcorre lations
ri al
Ġm agn
Ġtreat ment
Ġqu al
ĠCont rol
math cal
con s
Ġincorpor ates
e qu
Ġtop ics
al og
Ġtail ored
C E
Ġpers on
i od
Ġdes pite
ĠTrans fer
Ġway s
um er
Ġd ensity
M M
Ġt abular
ra ble
ĠCl uster
Ġmod ules
Ġutil izes
Ġconvers ational
Ġsy mbolic
a der
Ġtransi tion
Ġinvol ving
Ġcl ient
Ġemp has
Ġbi om
le te
Ġman ual
ĠProcess ing
Ġbec omes
Ġexplore d
Ġdiagnos is
Ġpersonal ized
S h
C O
ĠRet rieval
d o
en ess
it ation
Ġse en
Ġl ittle
Ġphenomen on
P S
mar t
Ġman ip
Ġcal ibration
de fined
Ġst atic
Ġpos si
it ten
Ġtrans port
paramet ers
ĠSe qu
g ments
Ġinteg rate
ign ment
Ġ ign
un ding
ore g
Ġpar ti
Ġreconst ruction
Ġhighl ighting
U C
Ġconst ant
Ġn ar
for ward
ed ia
form ed
ati ves
in ing
Ġint rinsic
Ġa mb
th ers
Ġincre ased
Ġte am
Ġpro ject
ra b
ĠFe ature
Ġlex ical
Ġno tion
Ġgen der
Ġeas y
Ġinterpret ation
Ġhand ling
ĠL at
Ġint elligent
Ġtrans l
Ġfrequ ency
Ġrele ase
r or
Ġoutperform ing
sy ch
Ġro bo
Ġalgorithm ic
Ġneed ed
Ġc at
ok en
av ig
ient ed
seud o
$ .
Ġcare ful
% .
B ench
ĠM I
ĠPro ble
ro up
it ude
Ġpar sing
Ġbas is
u pl
ĠCont r
e ep
Ġ vers
or ds
} )$
Ġcounter factual
ux ili
Ġmain ly
Ġle gal
ĠPre vious
Ġint u
ĠSt ud
Ġmolec ular
Q L
ĠM a
ĠC NN
eps ilon
Ġfin ancial
Ġbas ic
con vex
Ġt ensor
ĠAut o
R I
Ġver ify
pport un
uxili ary
ant um
Ġextend ed
at tention
Ġb ud
Ġlimit ation
Ġover head
K G
Ġel imin
ynam ical
c ase
Ġa round
Ġsimul ated
Ġs ix
ar c
Ġexten sion
S S
ap h
Ġo thers
Ġra ti
Ġfocus ing
Ġthere fore
ĠP y
wor d
ĠL ow
Ġband it
ore st
Ġscal es
Ġinter mediate
Ġlat ency
Ġas pect
ograph ic
ĠS to
Ġsoft ware
Ġdri ving
ic tion
Ġcontin ual
ump tion
Ġcl ose
Ġun iform
lec tive
Ġet c
m ost
ĠA b
Ġvide o
Ġdeg ree
Ġtechn ology
Ġrig orous
Ġco ord
Ġdec oder
Ġoper ator
e tic
amp le
Ġf lu
ĠF rom
Ġman ually
ĠC ol
Ġver ification
id el
Ġtre es
ch ron
ce ed
ĠB uil
Ġsh aring
ĠSt ate
Ġcaus e
Ġed uc
Ġele ments
Ġsuperior ity
Ġpro of
ĠQu an
ic ro
Ġins ight
ĠCaus al
Ġch annel
Ġgeneral ized
Ġweight ed
G NNs
ĠDiff usion
Ġ [
agnos tic
ons ist
r ase
Ġal ways
d es
Ġco verage
Ġgeneral iz
Ġmat erial
st age
Ġvari ant
Ġshif ts
Ġlabel ing
R O
t a
Ġsty le
Ġcapt ures
expl ored
Ġneighb or
Ġv ol
Ġemer ging
Ġcriter ia
Ġexec ution
Ġrepresent ed
Ġdep th
Ġestablish ed
Ġd eli
Ġspect ral
o ve
ĠL inear
Ġnumer ous
w r
ĠAl l
Ġsurrog ate
ul ations
wor th
ĠExpl ain
Ġth resh
E G
Ġconstruct ed
ĠMem ory
Ġqual it
D L
ĠM T
Ġdimension ality
Ġt ests
M DP
Ġl aw
ser ies
Ġdes ired
Ġrecommend ation
L STM
Ġpredic ted
Ġset up
Ġa udio
ĠS V
Ġun ders
Ġnat urally
Ġsu mm
Ġprop agation
ator ial
V ID
Ġcont ributions
t r
Ġser ve
ĠExt raction
g round
el ess
ot e
oreg ressive
Ġcons umption
Ġm ut
ĠSto chastic
Ġpoly nomial
s ide
Ġinsp ired
ĠCon s
Ġoper ators
NI ST
} ,
ĠW ik
A ware
Ġw ind
Ġd rop
Ġfew er
g o
Ġheterogen eity
Ġgeomet ric
ĠA rab
Ġidentif ied
E val
or iented
Ġmodel ling
re ed
Ġs ense
res er
ter s
ĠO OD
ĠS ince
Ġuni versal
ĠMe an
DE s
Ġm orph
Ġpop ulation
g er
oriz on
Ġd en
Ġsaf e
w ay
Ġschem es
ĠAn swering
r ich
ĠF air
Ġbal ance
Ġpro v
Ġh in
Ġinst ructions
Ġdiffer ence
ĠT ree
ĠS cal
ation ary
Ġrel atively
Ġm ixture
Ġper iod
Ġmarg in
Ġprincipl es
Ġt akes
Ġsy mmet
Ġtrans par
ĠI d
Ġn orm
Ġprog ram
Ġo pportun
Ġinform ative
Ġfact ual
Ġt ax
as sive
ĠPri v
Ġrepresent ative
Ġsec urity
Ġrele vance
Ġa uxiliary
Ġover lo
Ġbrid ge
Ġbehavi our
Ġsub ject
Ġpre vent
te in
ĠB e
ĠAlgorith m
Ġcre ating
Ġtr uth
ĠC ar
ĠH ow
r t
Ġab ove
Ġquantit ative
Ġra w
Ġargu ment
; &#
A L
Ġfunction al
Ġextract ing
G NN
Ġrepresent ing
Ġinter act
Ġinc omp
Ġ &
Ġplatform s
Ġapplic able
y m
} .
Ġselect ing
oc abular
ĠS GD
ro ph
ands c
Ġfor ms
ĠO b
Ġdesign ing
ocabular y
idel ity
an ge
Ġgener ic
Ġdeploy ed
Ġbott len
in ed
tiz ed
Ġeffor t
B o
Ġg ra
Ġform at
Ġsoc i
S M
r ation
Ġto ward
Ġsensi tivity
Ġexpl ores
Ġenc ode
Ġprog rams
Ġl ibr
Ġlimit s
C G
N s
Ġas y
Ġcontain ing
ĠF act
Ġanom al
Ġemplo ying
l am
ĠO ut
Ġf ree
Ġch ain
ĠC onst
Ġoc c
Ġre tain
Ġsegment ation
et a
ĠS T
Ġj ust
A G
Ġf ra
Ġinc onsist
Ġvari ations
Ġh om
id ual
ction al
Ġquantif y
ĠArab ic
Ġs ensor
ram mar
Ġgo als
Ġconfir m
ĠEn tity
Ġprob abilities
Ġser ver
Ġmap s
Ġun its
A gent
Ġoc cur
ĠImpro ving
it ed
ic es
m ax
Ġsynth es
ir d
ĠC om
R e
ag ed
Ġh aving
Ġminim izing
Ġhel ps
Ġsynth esis
Ġp sych
ect or
Ġin verse
ĠT emporal
ĠL abel
Ġestim ating
Ġindividual s
Ġperform ances
Ġbl ock
ĠM at
Ġcollabor ative
ch ing
ĠO r
Ġadj ust
Ġprom ise
tic es
Ġlearn er
sequ ence
Ġsugges ts
Ġsp l
ĠR ed
Ġl ast
d ec
ul ated
ĠBuil ding
oc ol
ĠU ni
Ġartic les
iz ers
Ġcl osed
Ġdial og
ĠT op
ĠG o
Ġ1 2
Ġflex ibility
Ġp seudo
Ġre v
Ġexplain ability
ĠH igh
Ġprec ise
Ġsumm aries
C R
Ġinterac tive
ĠApp lic
ĠId entif
at er
Ġp urpose
Ġreg arding
ĠS um
onom y
Ġassum e
Ġd ynamical
Ġprot otyp
Ġhypoth es
pp ed
Ġmagn itude
um ing
ĠS O
Ġformul ate
Ġdescrip tions
ĠContr astive
$ \
Ġfin et
ĠInter pret
Ġn avig
en al
Ġtechn ical
Ġhyper parameter
Ġprim ary
ĠG u
ĠH ierarchical
Ġunders c
Ġover fitting
ĠCluster ing
Ġre ad
Ġmanif old
ĠSer ies
H R
ĠUn supervised
ĠGraph s
ĠMon te
I N
Ġimp ressive
Ġret urn
re le
q rt
reser ving
ĠD NNs
Ġproduc es
Ġskill s
ell ing
ect ing
Ġred und
Ġshow ed
Ġreg ion
Ġpar ts
et ing
Ġconf lic
Ġgener ator
end ed
od ed
Ġattribut e
Ġdegrad ation
Ġdefin ition
s qrt
en ing
Ġm ixed
Ġdetermin istic
Ġg rid
Ġdep ends
ress ing
lex ity
Ġstatis tics
Ġhighl ights
Ġpos es
Ġdisc ourse
ĠAdap tation
ĠRepresent ations
p oint
ĠD P
Ġtrans formation
Ġqu ick
Ġtyp ical
Ġde v
Ġconvers ation
Ġs low
o ph
ĠS ci
Ġheur istics
Ġd ense
lam a
Ġcre ated
Ġris ks
Ġprincip le
ith ful
ĠRec urrent
Ġinduc tive
ĠC urrent
i rable
Ġconn ection
e in
Ġcomp act
Ġtechn ologies
ĠHy per
Ġc ell
ĠA m
om ic
ĠO ff
Ġimplic ations
ĠCO VID
Ġallevi ate
is ition
ĠM DP
P s
ĠSpar se
ĠComp reh
ĠComp ared
Ġet h
Ġpl an
ĠE qu
Ġoper ation
Ġbound ed
Ġlik ely
Ġextre m
ul ing
ĠS oc
Ġamoun ts
o ice
Ġits elf
Ġexp ect
ĠStud y
Ġm al
Ġra re
Ġequi valent
Ġminim ize
ĠVari ational
Ġconnec tions
in ant
ĠP o
; ,
n os
Ġpl ays
ast roph
Ġexhib its
Ġl andsc
Ġst ra
ap s
ĠLe veraging
Ġc ult
ĠEn s
ĠMulti lingual
ron ic
c ri
ĠThe y
f ect
Ġal most
Ġparti tion
Ġexp ressive
t emporal
fin ite
ĠIn spired
Ġh ere
Ġcontribut e
Ġch em
Ġad ding
ign ed
Ġdescrip tion
Ġ` `
Ġdis entang
Ġsitu ations
Ġdig ital
ra tic
Ġpro duction
Ġparticip ants
Ġneur ons
Ġreg ard
Ġmo b
Ġtransform ers
Ġr ational
Ġhist ory
un ed
d is
Ġop in
Ġbi ased
ĠMethod s
ĠV er
ĠInt eg
Ġm achines
Ġst ages
Ġinitial ization
Ġh ierarch
Ġcle ar
Ġdatab ase
Ġaugment ed
Ġbiom edical
Ġutil ized
S O
Ġpo ol
Ġprot ocol
Ġbud get
Ġmess age
Ġsh are
Ġindust rial
Ġcons isting
Ġmo ve
cur ate
L a
ĠEn c
ĠC an
Ġmob ile
Ġcho ices
Ġcharacter ize
Ġiter ation
Ġ RAG
Ġout come
Ġrepresent s
Ġex pos
Ġb us
ĠAr chitect
Ġrec all
C o
Ġac tivity
ir t
Ġf it
Ġmaxim ize
ĠSe lection
e w
Ġexp an
jec ts
Ġpar tially
Ġcoun t
ĠLat ent
Ġmeasure ments
S D
Ġfail ure
G E
Ġf av
Ġdec entralized
Ġv an
Ġrel ational
Ġmajor ity
rele vant
Ġv is
Ġed ges
T h
Ġinter esting
Ġprior i
ocu ment
Ġs al
Ġfilter ing
s et
ĠCon vers
Ġc urrently
ĠE r
Ġlight weight
v ity
Ġproduc ed
ĠL Ms
Ġsc oring
le t
s ense
Ġrati o
Ġindust ry
Ġmod ular
a res
od y
ĠRe al
un e
astroph ic
ific ations
erm an
Ġcompreh ension
Ġloss es
Ġcommun ic
Ġreview s
Ġco oper
Ġcost ly
ĠReg ression
ĠNot ably
es ides
Ġres olution
ĠP O
Ġhyper parameters
Ġfrequ ently
Ġautoenc oder
Ġestim ator
ĠEvalu ating
Ġdemonstr ations
Ġminim ization
p art
Ġf uzzy
Ġbeh ind
p olicy
on ic
Ġguid ance
p rop
our ced
Ġembed ded
ĠDial ogue
S t
Ġcle an
Ġs mart
Ġmod ality
ĠC P
Ġsol vers
Ġlat ter
R M
Ġsummar y
ensi tive
Ġco upl
ĠUn certain
C h
al se
ĠF ast
tiv ated
Ġvari ation
in ations
Ġre lying
Ġre ading
Ġqualit ative
ĠTra ditional
Ġinvol ve
Ġwh y
Ġg over
LE U
Ġclassif y
S V
ĠL M
Ġperturb ation
Ġpracti tion
ĠA D
n etwork
at ures
Ġpro ven
om s
Ġexplain able
ĠF orecasting
Ġcombin atorial
Ġexpon ential
ol ve
Ġsepar ate
Ġne uro
Ġconvers ations
if ies
ash ion
Ġd one
Ġit ems
Ġqu antum
s im
re ement
ric ul
Ġg et
Ġ1 5
Ġconsider able
E M
in ate
Ġl ist
Ġd om
Ġd ed
ire ctional
R C
mp to
Ġextrem ely
Ġl ife
V AE
Ġcons tit
Ġlimit ing
Ġavail ability
ip s
Ġcomple tion
ĠE u
us ed
ĠB l
Ġc odes
ar ity
Ġsupp orts
in formation
or ough
ribut ed
Ġconn ected
Ġexplo iting
Ġd iction
Ġre fin
Ġv ast
x ic
Ġenc ounter
ĠPer form
Ġinvestig ates
ĠAtt ack
ra tive
Ġinter val
st ein
Ġser vice
Ġconstruct ing
read y
ass ing
Ġont ology
l imin
Ġdeli ver
ĠSoc ial
gu es
Ġwork flow
Ġminim um
emb les
Ġqu ad
oc ks
ar p
Ġch at
m it
re es
m odel
ĠWe b
ĠP I
ĠEstim ation
ot ing
Ġcareful ly
E x
ph a
Ġdescrib es
Ġpath s
Ġp enal
Ġser vices
C D
pol ation
ac tive
Ġstud ents
c re
Ġgreat er
Ġgain ed
us tif
um e
Ġpl ace
raf t
c or
ĠIn d
or ization
mis sion
ĠCom b
ĠT wo
Ġen ough
ĠL ocal
ĠCh allen
atch ing
Ġground ed
Ġnormal ization
ĠG e
Ġpaper s
Ġ1 00
Ġ radi
Ġs qu
os p
ĠDes ign
Ġan alog
are st
is k
er v
ĠD o
Ġ +
pec tives
Ġth orough
Ġwho le
Ġmut ual
Ġacqu isition
Ġcontrol led
Ġmethod ologies
Ġmulti variate
ĠK ernel
Ġadop tion
at ter
Ġfact s
l anguage
Ġco p
l a
ĠR NN
Ġkernel s
c onstrained
ĠHe alth
Ġrep orts
Ġrel ax
Ġprincipl ed
Ġv ocabulary
ess ion
Ġatt ract
ĠM NIST
Ġcomp lic
Ġso le
Ġreconst ruct
C I
Ġg ran
ĠD L
ab oration
ĠV isual
ac c
er y
ep th
Ġequ ation
Ġgreat ly
e per
Ġadop ted
ĠCar lo
on ly
Ġf all
Ġbottlen eck
Ġt aking
ac le
Ġestim ated
Ġpractition ers
o gues
id irectional
Ġattemp t
ĠInst ead
o ising
Ġidentif ies
d it
do or
k en
Ġk eep
Ġtarget ed
ĠAutom ated
Ġadap ting
Ġn ow
Ġdi vergence
Ġshort c
Ġ imit
ĠL lama
vi al
Ġenvironment al
ĠD ue
ĠSur vey
Ġd imensional
cent ric
off s
1 00
ul ating
ore tic
ĠN ER
Ġt we
Ġtrust worth
Ġl ab
E D
Ġiter atively
Ġact ual
Ġrapid ly
u ge
Ġm icro
atic ally
ĠSum mar
Ġn or
Ġadop t
ĠAut oenc
ĠS ampling
ĠRe LU
Ġexpl oring
ĠS af
im ate
ĠMin im
is ons
Ġspeed up
ĠPh ys
m in
ici ous
Ġtop ology
Ġvi ol
Ġun it
Ġide as
Ġal ready
B O
Ġext ent
ĠS entiment
ĠEmbedding s
ĠImage Net
Ġint ent
Ġinvestig ation
ĠReg ular
Ġe con
ĠB LEU
Ġun learning
Ġg rammar
Ġpub lish
Ġdef ense
Ġsp oken
ĠProb abilistic
Ġcomplement ary
r ases
Ġimbal ance
reg ular
ĠT r
Ġexpression s
ĠUncertain ty
ĠAc tive
Ġvalid ated
ut es
ĠS ch
ul ative
id ent
ell ed
Ġalign ed
Ġstrong ly
le ar
Ġbi ological
Ġgi ves
Ġdiscrimin ative
Ġpair wise
Ġlandsc ape
th on
chron ous
or age
Ġassess ing
amet er
Ġcomput ed
Ġstrength s
M D
m od
S I
Ġb ig
Ġres idual
Ġquick ly
Ġhin der
S e
ĠP r
Ġhe ad
ĠAppro xim
ĠT ech
Ġst e
Ġun f
as c
Ġphenomen a
Ġtrans crip
rising ly
ĠB esides
Ġgeomet ry
urb an
Ġdesign s
val ence
Ġsole ly
ass er
ĠSp ati
ĠGeneral ization
Ġcat astrophic
Ġcommon sense
r um
Ġc row
Ġm illion
ent ence
Ġwr iting
Ġindepend ently
Ġs ide
ul l
Ġrec ords
ĠOptim al
reed y
Ġdistribution al
Ġlibr ary
Ġdifferenti able
Ġm assive
Ġl ed
Ġtr ig
20 2
ak en
M P
ĠThe ory
Ġst ar
ĠE mo
ĠB and
E T
Ġn u
Ġexten ds
Ġcomp rom
Ġ urban
r ated
ĠS imp
Ġ1 9
20 1
Ġsc r
Ġacc omp
ĠPri or
Ġall ocation
Ġbus iness
ĠR O
Ġsol ved
Ġrele ased
Ġacceler ate
t on
Ġf alse
Ġh ope
id ers
Ġfollow ed
Ġactiv ations
M O
Ġadap ted
ol ute
Ġsens ors
Ġcaus ed
ĠMo tivated
l ate
Ġthresh old
Ġinvestig ated
C NN
gu ided
Ġlong er
d ay
ran ge
; .
Ġadap tively
Ġpers pectives
Ġover view
Ġenc omp
Ġincomp lete
asser stein
ĠM ixture
os en
Ġv s
ĠAl ignment
Ġrece ived
Ġbro ader
ĠLe arn
Ġcl o
ĠThe ore
Ġloc ation
Ġc oding
our s
ricul um
Ġmon ol
ĠExpl an
Ġdr ift
ĠSim ilar
Ġm ental
Ġmeasure d
o ol
Ġcomposition al
Ġcon volution
ĠPerform ance
Ġfa ithful
Ġh ate
Ġmost ly
limin ary
Ġun structured
Ġconfigur ations
r ight
ĠS ign
vi ties
ĠM A
Ġev olving
ese arch
Ġwor st
ĠSp ace
Ġex ists
Ġhigh est
nos tic
} (
Ġapproxim ately
Ġsamp led
Ġrandom ly
ti vities
Ġper ception
Ġde eper
Ġpro tein
ĠPl anning
Ġmark et
Ġcaus es
Ġrecommend ations
ĠY et
Ġin variant
Ġp ure
sc ore
Ġutter ances
ĠD istribution
Ġ1 1
ĠAg ents
Ġin su
ĠA fter
f t
ĠF low
Ġfeas ible
Ġcombin ations
a di
Ġder iv
ric t
Ġmeas uring
S p
S GD
Ġac ad
Ġde b
Ġgap s
Ġproduc ing
Ġsol ver
Ġmulti pl
Ġh old
Ġtransform ations
M o
p reserving
Ġexten sively
Ġh ence
res si
Ġat tain
Ġdepend ence
Ġor ders
ous tic
Ġb reak
all ow
Ġdem ands
ob jective
Ġfeas ibility
irt ual
Ġst orage
Ġsupp orting
raf ted
c tive
ĠPro mpt
Ġcontrol l
Ġcorre ction
C S
Ġde vi
Ġinnov ative
Ġo pp
Ġ5 0
Ġj ustif
h op
Ġran ging
ĠEnh ancing
Ġ {\
on es
ĠA ugment
Ġm ix
ib ri
ĠR esearch
ĠBi as
Ġc yc
Ġtop ological
Ġun re
ec king
Ġpro jection
Ġst art
Ġsub graph
Ġanomal ies
Ġper m
ĠSh ort
Ġoper ational
c ision
Ġopportun ities
in ter
us ive
Ġmatch es
ĠIn di
Ġsemantic ally
ĠAlgorith ms
Ġto o
Ġde vice
Ġcer tif
Ġconcept ual
Ġview s
wit ter
Ġclos ely
ĠContin ual
Ġcover ing
Ġincor rect
ĠIn tern
Ġsp ur
th og
b e
Ġvulner able
s on
ti ce
Ġcom es
Ġhe avi
ĠMulti ple
Ġneighbor hood
Ġbe g
Ġdisc rep
ill a
ĠV alu
ĠFe w
i ving
Ġaut o
Ġutil ization
Ġbound ary
Ġne arly
ĠLo RA
Ġro bot
pre ad
Ġwr itten
Ġinterven tion
Ġimbal anced
Ġspeak er
est ed
Ġpreser ve
ou pl
en tic
Ġreport ed
ph istic
Ġcompar isons
ĠN umer
le arn
yp e
Ġtarget s
cons uming
ĠEr ror
v able
Ġcategor y
Ġvehic le
Ġvehic les
ĠC L
Ġso phistic
Ġsched uling
ĠR E
cep ti
ĠCh ain
p rin
ĠA gent
Ġcons iders
En glish
Ġsimp ly
Ġobtain ing
Ġwid es
Ġtax onomy
ĠAn om
Ġ3 0
Ġconcl ude
C P
ĠS emi
ĠZ ero
Ġwides pread
) -
G P
til de
Ġaim ing
par ts
s pec
Ġsub optimal
Ġdescrib ed
S u
er ature
Ġchan ging
Ġsugges ting
Ġth reat
Ġheavi ly
Ġro ad
Ġl ine
ge b
Ġaccess ible
Ġoverlo ok
Ġwind ow
Ġch osen
Ġch eck
er gy
Ġmo ment
Sh ot
Ġiter ations
Ġimplement ations
ĠDisc over
o ot
for tun
Ġind ex
Ġcre ation
a z
} \
Ġinterven tions
5 0
ĠE d
ct or
Ġgeneraliz ability
il arities
Ġbelie ve
o le
in ent
Ġac cept
Ġmarg inal
Ġinsu fficient
ĠM od
ĠS P
Ġsub space
Ġ1 3
Ġbenef icial
Ġquantif ication
Ġcriter ion
ĠArchitect ure
ill ions
wh ile
Ġtra ct
Ġcompar ative
Ġcor rup
Ġatt ribution
Ġexperiment ally
Ġaddress ed
ĠC ap
Ġen rich
Ġproced ures
ĠG erman
cl ide
ĠV ector
Ġpoor ly
Ġpro x
Ġaut oregressive
Ġunc over
Ġmotiv ated
ĠDis tillation
Ġclaim s
Ġanalyz ed
d epth
Ġappl ies
clide an
Ġep is
prop agation
P ro
el ta
Ġargu ments
in formed
ĠS et
Ġreg ime
Ġmitig ating
l l
Ġinher ently
fortun ately
Ġf ashion
Ġconver ge
Ġcoher ent
L o
T E
Ġharm ful
t ail
Ġmeasure ment
Ġcandid ates
Ġclo ud
l ier
ĠE EG
Ġstra ight
th eless
ĠN ext
tun e
a ugmented
Ġm ode
Ġrepl ace
id th
ĠProg ramming
Ġenc oded
Ġb ran
ĠT witter
con t
Ġlearn ers
Ġparamet ric
Ġa id
enc ed
ey ond
ĠOver all
ĠLog ic
or ld
Ġcomp ati
Ġinvol ved
Ġwe ather
Ġdes irable
Ġasy mpto
ĠB oth
ĠE ach
Ġtr ends
Ġwhere as
Ġfacilit ates
Ġmonol ingual
Ġpropos ing
ĠCon f
Ġpossi b
i tical
atic s
ĠSt ructure
Ġcoll aboration
ĠRobust ness
arc ity
ap se
Ġtrans lations
ĠCol l
o king
the oretic
Ġp ack
Ġv ital
Ġfinet uning
Ġs us
ramm atical
ention ed
Ġp ric
Ġinter face
Ġf ron
Ġsophistic ated
Ġcirc u
paramet ric
in tensive
de ed
Ġcorrespon d
ĠProble m
Ġin v
Ġst rict
di tive
Ġent ail
i able
ĠPy thon
Ġcounter parts
ĠM edical
Ġ1 6
orec ast
D NNs
Ġ CT
Ġpl aus
Ġdial ogues
Ġcomp r
Ġbehavi oral
ĠProcess es
_ {
ĠCompreh ensive
Ġun s
ĠB ack
Ġdiscuss ed
Ġex ceed
Ġpre fer
urr ence
ot onic
ex p
ĠA PI
Ġrep e
Ġrestric ted
ĠI s
ĠN am
ĠB eyond
ĠWh at
Ġscr atch
ti se
Ġlex ic
ĠComm un
ĠIn f
Ġbenchmark ing
Ġser ves
am less
ĠN MT
Ġhalluc inations
B M
f rac
Ġsimpl er
ĠExplain able
un der
ĠSu pport
Ġgrow th
Ġdel ay
sequ ent
Ġabs olute
i ves
Ġcoher ence
ĠPriv acy
Ġis ol
ĠF our
ĠL La
ĠComp ar
Ġlo ok
Ġpredic ts
Ġpro por
Ġr ating
Ġmod ified
Ġtranspar ency
t rans
Ġc y
ust ain
le y
Ġattemp ts
il ibri
ĠCon cept
a ily
ig en
Ġf ake
ment ally
Ġnum bers
Ġvers ati
Ġdiagnos tic
g roup
Ġcorrect ness
H F
task s
Ġquad ratic
C M
Ġre training
ip edia
Ġeth ical
P G
Ġincre mental
Ġadapt ability
Ġgover n
Ġp ur
ĠD ire
ĠH ence
Ġsur face
Ġapproxim ations
ĠFe ed
Ġclass ic
ach e
ĠH eterogen
Ġsc arcity
requ ency
Ġin finite
ular ity
Ġac tivities
Ġgeneral izes
Ġpredict or
Ġapp ear
ot emporal
Ġt able
Ġf ram
Ġemo tional
c all
wor ds
\% $
ĠSummar ization
A V
R F
al ing
c omm
Ġcon cent
ist ent
Ġmin or
g t
ĠW asserstein
ĠSequ ence
ough t
ollow ing
Ġsh ed
chit z
Ġrun ning
Ġd riven
bi ased
dec oder
Ġsh ap
Ġbl ocks
Ġvari ability
ĠAnom aly
Ġimp er
Ġimpact s
Ġunderst ood
ĠG en
Bo ost
Ġdiction ary
D S
Ġinduc ed
ĠS oft
ĠCon sequently
Ġmem bers
ĠO per
Ġcl imate
ĠSt rateg
Ġprov ably
s ensitive
ual ity
el s
Ġcorre lated
Ġback b
ii i
e k
Ġexist ence
ĠMe as
N L
Ġb r
Ġband its
Ġt w
Ġcomput ations
ĠConst rain
Ġvan illa
Ġrun time
Ġsu ite
Ġback ground
Ġconcl usion
Ġexp ressi
E L
ĠT ensor
Ġdeal ing
geb ra
w idth
Ġsatisf y
in t
el ines
Ġsim ilarities
ips chitz
ĠContext ual
ĠWik ipedia
Ġfav or
an not
Ġnew ly
os es
Ġad vers
ĠDist ributed
ĠSO TA
t ri
i qu
Ġpos e
Ġtrac k
Ġtrac king
D T
ĠN ever
ĠV AE
O R
Ġse amless
Ġas k
ound ed
amb igu
Ġr ise
valu ed
w ide
re lation
omet ric
perform ing
Ġcustom er
p r
form al
Ġcomp an
ac ing
ĠWe ight
Ġab lation
Ġcharacter ized
ĠHy brid
ad ap
Ġquan ti
Ġh orizon
t urn
Ġ =
ĠUn fortunately
Ġac oustic
Ġdi vid
Ġreason s
Ġindic ating
a ive
valu e
Ġpopular ity
Ġspect rum
Ġparadig ms
i tively
mp l
ĠM ed
Ġle ak
Ġens ures
Ġcorrect ly
Ġal one
Ġmaterial s
Ġenc oders
Ġalign ing
ut er
Ġper cent
Ġupd ating
Ġlo op
Ġfacilit ating
Ġemo tions
Ġdetail s
Ġorig in
h avi
Ġspur ious
Ġe ar
Ġsp an
Ġgraph ical
ĠEns emble
ĠF unction
Ġdetermin ing
m er
Ġchem ical
thog onal
ĠNever theless
en tions
st ruct
ver ti
ĠEx p
Ġconver ges
Ġneg lect
ĠV ision
Ġsurpass es
Ġauth ors
ĠMa xim
duc tive
ĠT e
Ġ1 4
Ġk in
oun ds
v ation
ĠP ol
ĠN P
ent ed
Ġabs ence
Ġdep ending
Ġmaxim izing
Ġtwe ets
Ġt aken
Ġper cept
Ġad versari
Ġver sions
ĠS ever
Ġaltern atives
R U
Ġnot able
Ġsuff ers
A d
Ġt ight
ĠImp ort
Ġexperi ences
G CN
ĠV i
Ġprac tices
Ġdiscus sion
Ġex ch
ess ing
Ġhierarch y
l ass
Ġexp and
Ġe lement
Ġlearn able
Ġrequire ment
il ies
Ġloc ally
con dition
ĠDiffer ential
Ġimplicit ly
Ġproduct s
in ks
Ġun l
ĠDes cent
Ġflow s
Ġpublish ed
ic ated
Ġexper tise
Ġdepend ent
Ġtemp erature
Ġunc lear
N ER
Ġc entralized
Ġh ar
D D
ind ependent
Ġexplo its
Ġsubs ets
Ġremain ing
Ġmal icious
Ġcan cer
Ġbound aries
ĠPhys ics
ac ro
Ġpre liminary
h anced
me ans
ĠM C
ĠRes Net
BERT a
Ġstudy ing
ĠPers onal
Ġanaly tical
Ġloc ations
Ġf orecast
Ġsh allow
Ġexp ressed
Ġmodel ed
if ier
Ġstrong er
Ġrecover y
ĠAugment ation
ĠS em
ens us
Ġint ric
Ġpri ors
Ġnecess it
Ġlo ad
ĠL oss
ĠE lect
ĠGAN s
Su pervised
al k
Ġsp anning
Ġboost ing
A ugmented
ĠE vent
Ġk ind
Ġintu itive
ĠCon ditional
Ġcho ose
u fact
r ating
Ġf ill
Ġh uge
Ġcomple t
p urpose
Ġpo ison
Ġtransport ation
Ġth ous
Ġassign ment
Ġb il
Ġaim ed
ĠSp an
Ġeduc ation
Ġsignific ance
M F
f e
olog ically
Ġamb igu
ĠF orest
im es
Ġstream ing
Ġnavig ation
I S
Ġbec oming
Ġextre me
ĠI oT
Ġro uting
Ġencoura ge
Ġe mb
Le arning
yn chronous
iel ding
Ġlarg est
ĠAb st
ĠN N
Ġse ven
Ġtag ging
Ġb ring
Ġguid ed
iv ot
Ġden oising
Ġpl ans
Ġco ur
ĠPredic ting
Ġsh ape
Ġcontribut es
h oc
Ġcomp osed
Ġpre valent
Ġadv ancing
ibr ated
Ġsens ing
ur l
Ġag reement
ĠRe ward
Ġplay ers
ens es
Ġcompeti tion
Ġprof il
Ġstraight forward
o ch
Ġc um
ac tions
Ġpar aph
N A
Ġar ise
Ġrec ur
Ġsub sequent
l ates
Ġoper ating
Ġwork ing
Ġadd ed
Ġreason able
Ġhalluc ination
Ġcommun ities
ra y
Ġad equ
ar ri
Ġcl in
enti ty
ulti es
Ġoper ate
ic ine
Ġfa ult
Ġmanip ulation
Ġf raction
Ġto xic
Ġexten ding
Ġoptim ality
Ġr ight
Ġcult ural
Ġdefin itions
ĠC ur
ĠTask s
l t
ish ing
Ġimit ation
ar eness
Ġl abor
Ġfam ilies
Ġa x
Ġconfigur ation
pos it
ĠRel ation
iz able
ĠF r
Ġcontin u
Ġgra du
us ing
ĠC ase
ĠS k
Ġinter pre
Ġv irtual
Ġpipel ines
eff ici
Ġoutl iers
ĠSt ruct
ĠIdentif ication
in y
Ġdecre ase
ĠNam ed
tri vial
Ġdist ances
ĠEn viron
Ġhypothes es
Ġal though
in ated
us h
ĠA L
Ġdise ases
S R
Ġ RA
urr ing
ĠM LP
u ff
ĠN L
and ard
Ġestim ators
Ġacad emic
ĠC ounter
ĠB et
Ġar m
Ġdiffic ulties
ĠInterpret able
G u
j o
Ġco me
ĠG CN
Ġvalid ity
T uning
rodu ct
ĠFair ness
ĠSu pervised
Ġa ir
Ġemer gence
or tion
Ġsepar ately
ire less
Ġprop ag
ĠCo T
Ġpossi bility
Ġb ur
Ġpre processing
Ġbo x
ig uous
av y
Ġfactor ization
Ġevalu ates
Ġro ot
Ġutter ance
is ely
rac tical
are to
Ġtheore m
in ning
Ġed iting
Ġreveal ed
ĠExpl oring
I I
ĠC al
ĠN AS
Ġmask ed
in i
Ġback door
Ġtrain s
Ġor acle
vi val
ĠEn d
Ġvisual ization
S QL
ĠIntern et
S N
Ġse gments
Ġmo tion
Ġmitig ation
Ġw ater
Ġl if
Ġpro xim
Ġabst raction
Ġf orecas
Ġ2 00
Ġmod es
Ġvol ume
Ġupd ated
Ġspati o
ĠD RL
T ime
Ġh olds
sp eech
Ġsynt ax
ĠHeterogen eous
ĠAd v
Ġpr on
ĠCl inical
Ġcontinuous ly
ĠM ath
Ġbal anced
R es
R NN
Ġmod er
Ġens embles
Ġprof ession
Ġcomplic ated
M R
ar ce
Ġtrain able
Ġindic ates
Ġattract ed
Ġcomm er
Ġmolec ules
r ast
Ġf rame
ĠP areto
Ġcomplet ely
I L
Ġg reedy
Ġp ivot
Ġautoenc oders
ĠL ast
Ġsufficient ly
Ġsome times
od ic
ĠRe view
Ġestablish ing
Ġthe ories
Ġl ies
ĠL ipschitz
ĠN ormal
ĠP ret
Ġor d
Ġsitu ation
I C
un ctions
ĠAm ong
ĠSever al
F low
Ġconstruct s
ĠK ey
Ġsimul ate
ĠApplic ations
on ym
Q u
ĠM O
cri tical
o ts
Ġtr end
ĠE HR
ĠP ost
Ġequ al
ĠProble ms
MDP s
Ġid en
arm ed
P C
Ġgro unding
E C
Ġoutperform ed
ĠI ter
ac ed
i vely
ĠG lobal
Ġy ielding
Ġs ound
ant ly
enc ing
Ġprom inent
R ank
ĠR isk
ĠCor pus
ĠS entence
Ġrec ord
Ġbal ancing
Ġspeak ers
b b
ch es
Ġsever e
Ġs ustain
Ġadvers ary
ĠSt ructured
Ġfilter s
Ġex cl
Ġpre defined
Ġtract able
Ġretrie ved
Ġreveal ing
ĠValu e
Ġcoupl ed
Ġd aily
s mooth
ol ding
Ġreli ance
Ġcon j
Ġsc ope
Ġdirect ed
ĠNumer ical
w ith
ĠSh ap
ĠContin uous
st ra
Ġacc um
Ġclassif ying
ĠAc curate
Ġrefin ement
Ġinter s
Ġst ack
amp les
ĠX AI
ĠEu clidean
Ġc ut
Ġper p
lic ity
Ġact or
Ġtransi tions
ĠPar ameter
Ġe ight
ĠB ut
Ġdi ag
ĠTo ol
ĠMet ric
a ult
Ġselect s
ĠEff ective
Ġdrop out
ĠD uring
Ġint ra
Ġguid elines
Ġcomp rising
aract ers
eff ective
Ġf orest
Ġthrough out
1 6
n eg
Ġguarante ed
ĠBe havi
ĠFour ier
ĠS ome
Ġpol itical
ĠLLa MA
Ġtransfer ability
n ormal
Ġper fect
Ġadvance ment
Ġpass ing
Ġoptim izes
ĠFeed back
r en
Ġpredict ors
st s
val id
Ġconsider ation
Ġcapture d
ĠS H
ist ency
Ġrepl ay
Ġopin ion
ĠF ound
emp l
con n
ap l
Ġpost s
Ġfac es
Ġmod ifications
Ġexp ress
Ġpos s
ub iqu
Ġsl ight
Ġsc re
Ġcur riculum
Ġneighb ors
Ġ ubiqu
Ġen jo
Ġimp utation
ĠBo ost
Ġredund ant
Ġro les
lec tively
Ġwid th
an king
ilibri um
el ves
Ġpro hib
Ġex cess
Ġfail s
AS R
Ġaggreg ate
Ġdraw n
ĠJ oint
Ġterm ed
Ġstar ting
ĠC NNs
Ġbas es
Ġhelp ful
urac ies
Ġspec ified
Ġrandom ized
Ġreli ably
Ġcar ri
S G
Ġl ot
st ationary
ogni tive
ĠNew s
ĠD em
oun t
v ents
ĠT est
Ġcoll apse
ĠOff line
ĠAttack s
o vers
ĠS o
Ġinc ur
Ġpr one
ĠPre ference
Ġexc ell
Ġprox y
f aces
Ġ4 0
Ġarchitect ural
ith me
ograph y
ĠMean while
on ical
ie ce
cepti ble
Ġkin ds
i ability
ĠP LMs
ĠEn ergy
Ġref ine
ĠAd am
Ġexten sions
ĠDec omp
Ġshow case
Ġmess ages
call ed
Ġl inks
ous e
Ġmo bility
ĠSV M
Ġspl it
Ġh ours
Ġimp l
Ġintrodu ction
Ġdisc re
Ġcharacter ization
Ġcategor ical
ĠScal able
e as
ĠS ing
Ġstatis tically
Ġaff ects
Ġmer ging
Ġa ge
Ġd ram
it able
Ġhe ads
Ġf idelity
ĠP ower
Ġdiscrimin ator
ĠEmpir ically
l ife
Ġimplement ing
ĠExpl oration
Ġdiscrep ancy
C B
al pha
Ġre posit
lic it
ad es
Ġim aging
ism atch
Ġin e
Ġf ost
ĠA UC
dom inant
Ġrefer red
Ġ1 8
ĠAl so
ĠTra ffic
D NN
R S
ĠP AC
Ġpl ann
Ġremo ving
rep resent
ar ith
Ġst ory
Ġar tif
Ġsee k
mb ol
Ġtra vel
er ce
it ous
Ġindepend ence
ĠD ocument
Ġeas ier
Ġrepe ated
E S
T ext
l ay
y le
Ġs at
Ġb it
Ġme et
ra de
ĠM oder
Ġprom ote
Ġweak ness
ĠMDP s
ĠDiscover y
Ġpro ved
ol ved
Ġcur ated
Ġavoid ing
ĠDiffer ent
Ġpro s
m ic
ct u
Ġinf rast
ufact uring
Ġcomp et
am ese
ist emic
ĠSt atis
Ġdeplo ying
Ġexcell ent
em e
ĠG roup
Ġintric ate
con f
Ġformul ated
re ction
} {
Ġg old
Ġ2 5
Ġtri ple
ĠMat rix
al f
ĠM is
Ġide al
Ġcommer cial
d le
Ġw ave
Ġph rases
1 2
Ġat ten
Ġfail ures
Ġexpan sion
Ġded icated
it es
Ġwe ighting
ithme tic
Ġbuil ds
ĠNo vel
Ġlaw s
Ġmorph ological
F s
ten ance
Ġob st
Ġannot ators
/ \
Ġsub jective
Ġa mpl
Ġir relevant
Ġg rammatical
Ġrespon sible
ĠRes pon
Ġbackb one
Ġprototyp e
ĠP ath
sequ ences
Ġshow c
Ġsupport ed
Ġconnec tivity
P A
Ġspati otemporal
F ed
f idelity
Ġin ject
Ġe igen
Ġexplain ing
Ġbel ong
c rafted
Ġf oot
lo b
bo ard
Ġdefin ing
Ġcooper ative
ĠEmo tion
ĠE M
Ġch aracters
Ġin ner
Ġminim ax
Ġsimul ator
}$ ,
Ġcomp il
Ġro und
Ġdatab ases
ri end
Ġdem ographic
Ġcompreh ensi
ĠFe atures
b re
u ction
Ġm im
Ġint ract
Ġlack ing
Ġdetermin ed
ĠS SL
Ġal gebra
Ġch ild
Ġregular ized
P L
p oints
Ġcirc um
Ġb ody
pre dic
id ing
ĠAn d
ĠUn ified
Ġco arse
ĠD ual
Ġacceler ation
ĠDire ct
tic ip
D riven
ĠL anguages
ĠM atching
Ġapp e
ot stra
ĠEn g
tr uth
ĠUni versal
Ġevolution ary
Ġs wit
Ġcomp os
Ġ20 20
Ġ9 0
Ġen for
ĠDynamic s
an ese
stan ti
Ġover l
emp or
w areness
an swering
th rough
Ġth ird
Ġhom ogen
D M
Ġf lo
Ġdevelop ments
Ġa veraging
Ġsc rip
Ġstream s
Ġm us
Ġfra ud
Ġh und
Ġsh arp
Ġh ad
Ġschem a
Ġ }.
b ed
at us
Ġit em
ver sion
Ġnot es
su ch
ĠGener ating
Ġpric e
b reak
ĠSimp le
et ary
Ġ1 7
b s
n o
Ġmaintain s
o ks
d if
Ġcomp ress
C C
as ive
Ġar ri
Ġobtain s
Ġsurp risingly
Ġpool ing
Ġforecas ts
O OD
b atch
z ing
ĠS E
Ġpre dominant
ach ing
ĠI f
ĠEd ge
annot ated
d ata
T L
b olic
Ġin deed
ĠT rac
Ġcarri ed
ĠP DE
Ġsepar ation
ĠA gg
ĠF il
ĠMo E
Ġeduc ational
Ġdev ise
ambigu ation
Ġambigu ity
es tim
ĠI ts
ĠSyn thetic
Ġm ismatch
ati vity
Ġph rase
oun ding
ĠBand its
Ġubiqu itous
E fficient
Ġmod ification
ĠSp ect
ĠDet ecting
Ġdraw back
Ġcum ulative
in c
ĠRec omm
Ġfound ational
Ġuseful ness
Ġjud gments
i um
s ample
Ġthe ms
ĠFr ench
st ate
Ġcomp ressed
res sively
ĠU ser
Ġpl ug
Ġacqu ire
Con text
Ġthems elves
Ġst ationary
Ġpar ser
Ġsimp licity
ps ilon
Ġcaus ality
Ġlog istic
Ġrecogn ize
Q N
as ting
Ġprec isely
a ut
wr itten
ĠExplan ations
Ġcomp eting
Ġd ate
ĠAn not
Ġinform ed
d et
ĠA re
N O
c ibility
Ġcomplex ities
A s
Ġon ce
ob ser
effici ents
Ġper ce
ĠE ven
Ġform er
Ġpivot al
Ġposs ess
ĠSimilar ity
Ġre volution
Ġex empl
ĠSpan ish
Ġm acro
Net s
AR T
ĠL apl
ik elihood
h ard
Ġpropos al
Ġoptim isation
Ġreg ul
ĠEn t
N MT
Ġ ultim
Ġar ises
lo op
ĠEnh anced
Ġkeep ing
Ġthous ands
Ġinconsist ent
ĠI CL
Ġqu ite
Ġsmooth ing
Ġvide os
Ġun biased
Ġprob ing
ĠScal ing
Ġplaus ible
Ġt ables
Ġb in
if iers
Ġuncertain ties
mmet ric
Ġexpon entially
Ã ©
ĠM ask
Ġun explored
Ġstate ments
Ġaff ected
Ġmoment um
Ġsub jects
Ġmis information
Le vel
Ġaccomp lish
ĠQ uality
ĠSem Eval
n et
Ġt en
ĠM ob
Ġfin ds
Ġobserv able
go ing
Ġp ort
Ġop tions
A r
C oT
ĠM echan
Ġstrateg ic
ĠPredic tive
Ġpos itions
Ġdemonstr ation
Ġadj us
Ġremo ve
ĠG em
Ġbelief s
lob ally
Ġincorpor ated
Ġtrustworth y
o x
le ep
um n
ĠCh aracter
Ġp ut
N AS
ĠF usion
ĠDe velop
Ġhe avy
Ġcontrol ler
Ġign ore
Ġcompr ises
Ġph on
ĠRegular ization
ĠModer n
s ers
Ġlever aged
Ġmaxim ization
Ġinterval s
r as
ĠR NNs
Ġint ensive
Ġpl ayer
Ġenab led
ĠKG s
f old
N T
Ġ8 0
O L
on t
Ġb arri
Ġre form
Ġoptim izer
ĠNe ighb
Ġin stanti
el erated
A t
om ings
G en
S c
Ġnu anced
S H
Ġin efficient
ac r
ĠU til
Ġcons ensus
R T
p ass
Ġmin i
Ġenhance ment
Ġamb iguous
t arget
res olution
Ġvulner ability
ĠF l
bi asing
ti er
Ġm illions
ess ian
Ġmem orization
Ġnar row
Ġin ac
st yle
ĠAut onomous
ro unding
Ġgeneraliz able
c rib
Ġco efficients
ol istic
op ic
ĠJ ap
omm od
Ġp ay
le tion
vel oper
S cale
m ing
pre cision
ĠOpen AI
Ġtransl ate
ole an
acr ific
D F
N e
sim ilar
ĠCounter factual
Ġh osp
Ġ20 19
ĠConvers ational
T erm
ĠApplic ation
Ġear lier
Ġor thogonal
Ġrec ip
adi ly
ĠP at
Ġautom ation
T ask
an swer
od ied
Ġh arn
Ġco variance
Ġauth or
D I
} (\
ĠH in
Ġar ms
Ġsimpl ified
Ġe c
Ġwor se
Ġdiscover ed
math bf
Ġshortc omings
Ġcompati ble
Ġw ireless
ĠGeneral ized
Ġoutl ier
prin t
M S
Ġn aive
Ġno tions
Ġpresent ing
Ġbil ingual
Ġa ven
Ġph ases
Ġj ob
Ġlinear ly
Ġunder explored
Ġneur on
Ġsc arce
Ġinclud ed
Lo RA
Ġanaly tics
ĠPro mp
ent ropy
Ġacc ommod
ĠAd a
Ġproper ly
Ġback propagation
Ġs acrific
om orph
ĠComp lex
ĠAc ross
Ġsoft max
l ig
w en
Ġdis p
Ġont ologies
on ent
sp aces
Ġcom ments
ĠOb ser
riend ly
1 4
ra g
ot es
Ġrev is
% )
Ġcontrol ling
Ġfollow s
su b
ĠV e
ĠChallen ge
comm erce
ĠL ayer
Ġdis til
Ġorder ing
Ġfrequ ent
Ġteam s
} ^
Ġ x
in variant
Ġcons erv
Ġser ious
ĠShap ley
7 0
Ġad ditive
B P
Ġa ud
ĠPro t
Ġsequ entially
C F
ie f
ro id
ĠH essian
Ġrepl ic
^{ -
t ype
Ġro unds
math bb
Ġexact ly
ĠSequ ential
1 5
in f
Ġb idirectional
Ġextract s
Ġrobo tic
bo ts
Ġpreser ves
Ġweak ly
sy mbolic
Ġres olve
Ġall oc
cre mental
ur ation
Ġl inking
Ġvers us
2 5
k it
ul tic
Ġun like
Ġnot e
Ġp ix
Ġph one
Ġobserv ational
Ġchannel s
Ġconstit u
ist ed
Ġsurpass ing
ĠTech niqu
Ġminim a
ĠSim ulation
Ġencomp ass
Ġmask ing
Ġin duce
Ġsummar ize
ĠPar allel
mit ted
Ġnam es
Ġequi valence
ĠS w
Ġse em
Ġreg imes
Ġwork ers
-- -
Ġretain ing
neg ative
ĠD epend
Ġmed icine
ĠPr uning
ĠC F
Ġperp lexity
Ġp urpos
cont rol
Ġseamless ly
d own
Ġsp read
fact ory
Ġconc rete
h y
ĠR em
Ġformul a
Ġredund ancy
ĠLast ly
al igned
Ġra ises
Ġsuggest ed
Ġprofil es
Ġintract able
g ram
z e
at t
Ġst ress
ĠP E
imit ed
Ġleak age
D C
Ġal ter
Ġsy mpt
ĠSaf ety
Mo E
ĠCommun ication
enti able
Ġver ified
Ġcondition ed
Ġn ame
og le
wr iting
1 8
Ġsubs tit
Ġnecess ity
ĠA T
Ġact ually
Ġnecess arily
ĠPers pective
Ġestablish es
ĠCP U
G raph
Ġc ues
Ġde veloper
or ch
lo ad
Ġdescrib ing
Ġnar rative
I ID
le ctions
ĠK L
Ġlat er
Ġdiscover ing
Ġc ache
Ġin variance
Ġcho osing
Ġelect ronic
y stem
ĠTh ird
Ġst atus
Ġdi ver
Ġinvestig ating
Ġlack s
ĠAgg reg
m entioned
ment ation
Ġsp ans
Ġar ithmetic
Ġecon omic
eas ible
L A
Ġmain tenance
Ġelect ric
Ġm ist
ic t
Ġretrie ve
ĠSecond ly
Ġcrow ds
R P
Ġinter polation
f requency
Ġabst ractive
Ġpriori tiz
ex per
Ġmembers hip
Ġth inking
ĠT uning
Ġg lobally
Ġdiscrimin ation
Ġopin ions
ĠAutoenc oder
a per
Ġp ush
ĠP rin
Ġ2 4
ĠEnc oder
ĠFound ation
et al
erm in
bo ok
Ġrecomm ender
F ree
Ġcondition ing
Ġundersc ore
Ġform ally
Ġcre dit
Ġcall s
Ġcri tic
Ġcollect ing
Ġdo ing
Ġthough t
Ġtranspar ent
T rans
Ġun des
ĠComputation al
ary ing
Ġman ufacturing
out put
ĠInst ruction
Ġstandard ized
Ġnor ms
Ġsur vival
Ġmove ment
Ġoptim izers
though t
Ġformal ize
Ġbr ings
O T
Ġb re
ĠY ou
Ġir regular
m on
in ates
Ġman age
Ġquan tized
ĠTop ic
O p
d a
l ity
Ġpro ving
am ma
ĠU p
Ġprotocol s
Ġinterpre ting
ĠJap anese
parameter ized
Ġep och
Ġlexic on
Ġdec oupl
Ġlog arith
Ġaggreg ated
empor ary
G s
ul ates
ĠComp ression
Ġtrade off
Ġcomprehensi vely
ad ata
ise ase
Ġ7 0
Ġassum ed
ĠVe hic
s um
Ġag nostic
ĠAr gu
Ġadap ts
ĠGPU s
Ġreprodu cibility
Ġworkflow s
ĠStatis tical
Ġlab elled
s ampling
Ġpa ired
Ġinter ference
Ġnovel ty
Ġpenal ty
I M
Ġdef enses
CT S
Ġas ynchronous
ici ans
Ġl ens
ĠD ep
Ġacqu ired
Ġfin ally
ĠFirst ly
s ed
Ġfin ance
Ġsoci ety
g ers
ĠS ample
ten ess
Ġinfrast ructure
G B
Ġint ended
our cing
ĠS olving
am il
Ġse ed
ĠAn swer
Ġprincip al
ĠPersonal ized
Ġsatisf action
Ġoccur s
Ġs aving
ĠM u
Ġimportant ly
Ġexperiment ation
eff iciency
Ġc asc
ĠT yp
Ġne arest
Ġacc uracies
Ġout line
C NNs
ĠB O
Ġdeg rees
ĠNo ise
Ġassess ments
ĠGo ogle
a o
Ġquantif ying
Ġsl ot
Ġasympto tic
Ġpurpos es
v is
ĠSc ore
Ġsur ve
Ġalong side
Ġadj ac
Ġh alf
ĠImp licit
ĠQuan tization
Ġne ver
oc c
Ġsearch ing
Ġexpect ation
Ġt ens
Ġimp os
Ġdec ay
Ġid entity
Ġregard less
Ġpure ly
ĠM AP
Ġattribut ed
Ġm ar
Ġcan onical
se q
ĠK B
n orm
ĠS A
rac tions
ĠEx ten
ĠPro p
Ġinfer ring
Ġim m
I P
Ġthrough put
text tt
Ġtransform ed
s ize
ĠM ix
ĠNe uro
rect ed
rie f
Ġrating s
Ġquanti ties
Ġpoison ing
f il
al i
as ion
ĠSub sequently
Ġrobo ts
ĠW ork
Ġsub tasks
Ġhe art
Ġparameter ized
Ġperson ality
amb a
Ġa wareness
ĠTo ken
Ġcol umn
Ġapproxim ating
Ġguid ing
Ġen force
Ġspec ification
Ġlat est
Ġcharacter istic
ĠBenchmark ing
E s
ĠS ol
ĠG ame
Ġnot ably
Ġweakness es
es h
ri tic
Ġpron oun
Ġp iece
ower ed
emb ling
ĠSyn th
Ġoverl ap
Ġjud ge
ĠE CG
ĠExperim ent
Ġequ ally
ĠBoost ing
+ +
en hanced
Ġre adily
ĠC ognitive
de vice
Ġconduct ing
Ġlength s
Ġrare ly
ĠM achines
Ġconsider ably
ĠBl ack
Ġres pective
ĠR i
tif ied
Ġrobo tics
Ġb atter
st able
Ġcon sequences
Ġoper ates
Ġconflic t
ĠT ur
ĠS L
Ġab und
ĠOn t
Ġbur den
Ġgen e
Ġd ro
Ġsub sequently
Ġenc odes
Ġpersonal ization
Ġperm utation
ĠP DEs
Ġquan tity
Ġcur ve
Ġep istemic
Ġsee ks
S F
ĠE volution
um or
Ġcre ates
app ro
Ġcogni tion
ĠAcc eler
ĠM itig
Ġmem or
Ġexploit ation
Ġdr astic
Th ought
Ġ( $
ĠS AT
um es
Ġintu ition
Ġco h
Ġsol ves
Ġequ ilibrium
Ġ202 1
v ision
ĠA ugmented
ĠIn verse
adap tive
ĠDecomp osition
u ble
re ds
Ġprot ection
LU E
Ġgradu ally
D RL
W L
Ġexpl or
condition ed
Ġs w
ĠC A
Ġconclusion s
Ġiden tical
I R
c oming
Ġb ag
Ġh olistic
Ġst ored
act s
Ġcomprom ising
1 3
f ield
Ġer a
ĠS pec
Ġconsider ations
ĠImpro ved
cri tic
y si
Ġs tim
Ġdis par
Ġr ender
Ġalign s
ĠApproxim ation
ĠP ub
Ġmo ving
Ġindic ators
ĠEng ine
K D
Ġan ti
ĠT D
Ġch ains
Ġ6 0
Ġent ries
Ġtrac es
ĠImpro ve
Ġad ditionally
Ġtr y
ĠRo BERTa
Ġcoord inate
Ġencounter ed
s olving
ra tives
ud es
sh elf
Ġtri al
Ġmim ic
Ġf itting
ni an
Ġsymmet ry
Ġdom inant
Ġpur su
Ġh app
Ġel icit
Ġto day
Ġro ugh
Ġhyper graph
Ġassum ing
h orizon
ec ks
ach er
ĠP CA
ĠPar tial
ĠMin ing
Ġversati le
ĠA f
Ġser ving
Ġassess ed
Ġposition al
Ġb illion
Ġback ward
Ġsuit ed
Ġcar ry
Ġs a
ed ge
Ġse lective
Ġtransfer ring
Ġmitig ates
Ġgrow s
Ġgen etic
Ġrun s
Ġdram atically
Ġbe am
Ġsymmet ric
Ġexch ange
ĠA ction
ĠSpati al
ĠK V
Ġgran ularity
I G
v ature
er ic
ec tions
ĠL ight
ĠM LLMs
v are
Ġco vers
ĠMA RL
Ġpossib ly
ĠD T
ib er
Ġequi pped
e an
tion ing
Ġin duction
ĠSaf e
$ ^
Ġa fore
eg a
Ġini ti
Ġview ed
Ġtransl ating
Ġhund reds
an ding
im age
ra dic
ĠDataset s
li ance
Ġinteract ing
vare psilon
m ann
ti veness
conn ected
ĠC onstrained
ĠD A
Ġanaly se
ĠEnt ropy
D R
Ġminim izes
Ġreturn s
Ġafore mentioned
r ical
Ġad verti
Ġemer gent
Ġsmooth ness
Gu ided
ve c
udi ed
ĠAutoenc oders
I E
ĠMo lec
ĠW orld
ĠComp uting
mod ular
3 0
Ġh ind
Ġinfer red
Ġregular izer
li able
ĠPriv ate
ĠQ wen
Ġexam ines
A n
Ġp ress
Ġre fined
Ġcounter part
Ġformal ism
Ġelimin ating
Ġminor ity
Ġmet adata
Ġformat s
network s
Ġslight ly
al e
Ġvari ed
amb da
ĠDist ance
ĠChallen ges
Ġpro pri
Ġdetect ors
Ġcontribut ing
ĠPar tic
O r
ic ations
om ics
Ġfac ed
ĠPar sing
N S
O m
)$ ,
Ġassoci ation
Ġexploit ed
Ġreposit ory
F A
b or
ĠCon c
ili ence
Ġ202 3
ess ment
ist ance
Ġassign ed
Ġmis class
Ġrecur sive
Ġscen e
Ġmix ing
Ġcy ber
Ġ ,
Ġlocal ization
Ġconcern ing
Ġcle arly
i ence
ĠT arget
ĠF unctions
osition al
Ġtransform s
ĠCons ider
D e
ĠI C
ĠR M
Ġ201 8
in spired
Ġhas h
Ġmis le
av ail
Ġentail ment
ag raph
tiv ation
Ġweb s
Ġpsych ological
i o
Ġd ay
ĠS mall
Ġexam ined
SV M
er ies
Ġon going
Ġdis ag
ult ural
ci ence
Ġsal ient
Ġpack age
Ġinters ection
Ġl ingu
Ġavoid s
Ġclos er
ĠPo ly
3 2
Ġcomp ares
and emic
Ġinterpret ations
k e
perform ance
Ġargument ation
Ġop tion
Ġrec ording
Ġmod ify
f ix
re c
Ġaggreg ating
Ġtrustworth iness
exp ected
Ġimp ractical
Ġhomogen eous
Ġout side
jec tions
ĠDe f
ĠDec oding
Ġdeveloper s
Ġst ance
ac ian
Ġsus ceptible
Ġon to
Ġpre m
Ġexam ining
Ġrepl acing
At tention
b l
o ir
Ġ202 2
9 5
G Boost
Ġth er
Ġpartition ing
ĠColl abor
Ġfram es
Ġcour se
ul us
Ġsub group
ĠAcc ording
Ġpredominant ly
ĠPat tern
M ed
Ġm entions
Ġim ag
af e
Ġorgan ization
v arying
Ġcont emporary
Ġdec ades
Ġsub tle
Ġed it
Ġinnov ation
Ġoverlook ed
ĠW MT
ĠG ames
Ġdo uble
Ġteach ing
Ġencoura ges
P F
c o
ĠA G
GAN s
Ġcircu it
) :
Ġin ferences
ĠT ri
ĠM edia
Ġexc el
R o
_ {\
Ġt ends
ĠB el
Ġencoura ging
D omain
ĠSt ream
ĠSci ence
2 00
Ġan ch
un c
il os
ĠIn vestig
ot or
ĠSp e
Ġfl at
et h
Ġpreser vation
i pl
Ġev olve
Ġ3 2
Ġaugment ing
Ġscre ening
b on
at en
Ġtrans lated
ĠTrans port
Ġhind ers
Ġm y
ĠF uzzy
Ġcl ar
ĠB as
Ġmain stream
Ġformul as
Ġmotiv ation
b ounded
ĠE arly
ĠAt ari
Ġrefer s
Ġco efficient
Ġst abil
tif ication
E E
Ġc ard
ĠA B
ĠTh ough
Ġinst ability
Ġsy mbol
Ġdisc ipl
pl es
Ġbo otstra
Ġstr ing
ĠSu per
Ġwh ite
ĠIn s
ot ed
ĠF uture
Ġint r
ĠComp lexity
Ġcontin ue
Ġsatisf ying
Ġcustom ers
Ġcount ries
Ġassoci ations
ĠTr ust
h old
Ġm ild
Ġre verse
ut or
ĠF ollowing
Ġrep eti
Ġcol lective
Ġprog ressively
ĠFin ding
Ġmapping s
ĠBo olean
Ġdecre ases
Ġcompan ies
- $
Ġf ed
Ġst ore
Ġar ising
bal anced
Ġcore ference
ĠSci entific
Ġfaithful ness
Ġcontroll able
Ġo ld
Ġcre ative
Ġequi variant
et ero
ĠH ard
Ġtoken ization
Ġpropri etary
Ġtack ling
Ġb rief
di rected
Ġtrig ger
U GE
Ġr en
A l
F S
} )
ĠC re
ĠB atch
ĠCon n
Ġrev ision
Ġimpl ies
2 4
s qu
ĠBet ter
ĠS QL
ir ation
our n
Ġext ractive
Ġsynthes ize
Ġfoot print
n on
Ġturn s
Ġcoord ination
ĠI D
Ġprocess ed
Ġlay out
Ġhyper bolic
Ġtransform ing
erv oir
ĠTech n
Ġax i
9 9
el ong
Ġst ock
ĠG it
Ġsci enti
s ourced
er g
Ġdiscus ses
ĠStruct ural
d ocument
Ġtra ce
Ġautom ate
ĠSh ared
ĠTra ject
Ġvi able
Ġultim ately
G L
Ġdet ected
Ġunf air
f all
Ġn ative
Ġallow ed
ĠHin di
ĠRes ource
Ġdeg rade
la pping
Ġsec ure
Ġtemp lates
Ġcrow d
Ġencomp assing
ri ving
Ġinter pol
Ġrepresent ational
ĠBi o
F orm
d elta
Ġ ing
Ġg ather
Ġmod ifying
Ġsetup s
ĠIndi an
X AI
r m
ĠD isease
ade qu
weight ed
Ġign oring
Ġexpressi veness
N LI
Ġch un
Ġj ail
Ġunre liable
ĠIn i
Ġtarget ing
Ġinterest ed
Ġtri als
ĠSing le
Ġinac curate
1 7
an e
ut ral
ac les
KG s
T D
Ġact s
ec ause
ĠTheore tical
H ub
Ġs em
ĠWith out
Ġnormal ized
otyp es
Ġentire ly
Ġpercept ron
$ )
O N
ĠO DE
Ġuniform ly
b ase
h aus
ĠC LI
Ġrequ ests
Ġemer ge
Ġ9 9
Ġsty les
mis sions
Ġpercent age
h uman
id ential
ak er
f unction
as i
Ġle t
ĠRecomm end
P R
Ġm ultic
si bility
Ġtrans mission
Ġins tit
ĠDial og
v in
Ġaction able
Ġvulner abilities
ĠComb ining
Ġelimin ate
Ġcyc le
ĠCollabor ative
Ġex cep
ĠD E
Ġemp ath
ĠIm itation
Ġquantit atively
Ġopportun ity
C s
l oss
Ġle ft
ĠP oint
Ġadop ts
Ġassum es
Ġdri ve
Ġarbitr arily
inter pret
Ġord inary
ar th
Ġscal ar
Ġdef ault
crip tion
Ġmus ic
Ġ ur
ven tion
ĠDisc rimin
Ġsoci etal
Ġocc up
or a
En d
8 0
Ġin adequ
as m
Ġno un
z en
as y
ĠL I
Ġdetect or
Ġst ere
ĠR ank
ĠIdentif ying
Ġvari es
Ġdistinguish ing
ĠConstrain t
rag m
ch ed
Ġdis ambiguation
Ġindi rect
Ġcorrespon ds
Ġmeaning s
Ġlogarith mic
Ġa ware
ĠB ecause
Ġinterpret ed
Ġsupp ly
Ġconc ise
ĠMob ile
a i
le ft
Ġdist ant
c ost
Ġpos ed
Ġcal ibrated
Ġinflu ences
ĠGu ided
Ġsqu ared
Ġv oice
Ġspecific ations
ci ble
MI C
Ġanomal ous
Ġrational es
Se ek
Ġsacrific ing
f riendly
p assing
Ġcont radic
ĠAd d
Ġsk et
ort ality
ber t
Ġcomput es
ĠExper ts
Ġplay ing
Ġthorough ly
pos ition
Ġgeneral izing
Ġclassif ied
Ġreach ing
ĠLapl acian
ist ry
Ġgi ving
Ġapproxim ated
Ġmon otonic
ore an
ib ly
ĠRL HF
Ġimpos sible
M ix
Ġun stable
ĠInter active
Ġinnov ations
Ġemphas ize
ĠSpect ral
Ġ( \
Ġun til
Ġintegr al
Ġ9 5
Ġcell s
ĠCompar ative
Ġrevis it
Ġf ix
Ġop ens
Ġinst ru
ĠQu ery
