{
  "version": "1.0",
  "truncation": null,
  "padding": null,
  "added_tokens": [
    {
      "id": 0,
      "content": "<PAD>",
      "single_word": false,
      "lstrip": false,
      "rstrip": false,
      "normalized": false,
      "special": true
    },
    {
      "id": 1,
      "content": "<UNK>",
      "single_word": false,
      "lstrip": false,
      "rstrip": false,
      "normalized": false,
      "special": true
    },
    {
      "id": 2,
      "content": "<TITLE>",
      "single_word": false,
      "lstrip": false,
      "rstrip": false,
      "normalized": false,
      "special": true
    },
    {
      "id": 3,
      "content": "<SUBJECT>",
      "single_word": false,
      "lstrip": false,
      "rstrip": false,
      "normalized": false,
      "special": true
    },
    {
      "id": 4,
      "content": "<ABSTRACT>",
      "single_word": false,
      "lstrip": false,
      "rstrip": false,
      "normalized": false,
      "special": true
    },
    {
      "id": 5,
      "content": "<END>",
      "single_word": false,
      "lstrip": false,
      "rstrip": false,
      "normalized": false,
      "special": true
    }
  ],
  "normalizer": null,
  "pre_tokenizer": {
    "type": "ByteLevel",
    "add_prefix_space": false,
    "trim_offsets": true,
    "use_regex": true
  },
  "post_processor": {
    "type": "ByteLevel",
    "add_prefix_space": true,
    "trim_offsets": false,
    "use_regex": true
  },
  "decoder": {
    "type": "ByteLevel",
    "add_prefix_space": true,
    "trim_offsets": true,
    "use_regex": true
  },
  "model": {
    "type": "BPE",
    "dropout": null,
    "unk_token": null,
    "continuing_subword_prefix": null,
    "end_of_word_suffix": null,
    "fuse_unk": false,
    "byte_fallback": false,
    "ignore_merges": false,
    "vocab": {
      "<PAD>": 0,
      "<UNK>": 1,
      "<TITLE>": 2,
      "<SUBJECT>": 3,
      "<ABSTRACT>": 4,
      "<END>": 5,
      "!": 6,
      "\"": 7,
      "#": 8,
      "$": 9,
      "%": 10,
      "&": 11,
      "'": 12,
      "(": 13,
      ")": 14,
      "*": 15,
      "+": 16,
      ",": 17,
      "-": 18,
      ".": 19,
      "/": 20,
      "0": 21,
      "1": 22,
      "2": 23,
      "3": 24,
      "4": 25,
      "5": 26,
      "6": 27,
      "7": 28,
      "8": 29,
      "9": 30,
      ":": 31,
      ";": 32,
      "<": 33,
      "=": 34,
      ">": 35,
      "?": 36,
      "@": 37,
      "A": 38,
      "B": 39,
      "C": 40,
      "D": 41,
      "E": 42,
      "F": 43,
      "G": 44,
      "H": 45,
      "I": 46,
      "J": 47,
      "K": 48,
      "L": 49,
      "M": 50,
      "N": 51,
      "O": 52,
      "P": 53,
      "Q": 54,
      "R": 55,
      "S": 56,
      "T": 57,
      "U": 58,
      "V": 59,
      "W": 60,
      "X": 61,
      "Y": 62,
      "Z": 63,
      "[": 64,
      "\\": 65,
      "]": 66,
      "^": 67,
      "_": 68,
      "`": 69,
      "a": 70,
      "b": 71,
      "c": 72,
      "d": 73,
      "e": 74,
      "f": 75,
      "g": 76,
      "h": 77,
      "i": 78,
      "j": 79,
      "k": 80,
      "l": 81,
      "m": 82,
      "n": 83,
      "o": 84,
      "p": 85,
      "q": 86,
      "r": 87,
      "s": 88,
      "t": 89,
      "u": 90,
      "v": 91,
      "w": 92,
      "x": 93,
      "y": 94,
      "z": 95,
      "{": 96,
      "|": 97,
      "}": 98,
      "~": 99,
      "¡": 100,
      "¢": 101,
      "£": 102,
      "¤": 103,
      "¥": 104,
      "¦": 105,
      "§": 106,
      "¨": 107,
      "©": 108,
      "ª": 109,
      "«": 110,
      "¬": 111,
      "®": 112,
      "¯": 113,
      "°": 114,
      "±": 115,
      "²": 116,
      "³": 117,
      "´": 118,
      "µ": 119,
      "¶": 120,
      "·": 121,
      "¸": 122,
      "¹": 123,
      "º": 124,
      "»": 125,
      "¼": 126,
      "½": 127,
      "¾": 128,
      "¿": 129,
      "À": 130,
      "Á": 131,
      "Â": 132,
      "Ã": 133,
      "Ä": 134,
      "Å": 135,
      "Æ": 136,
      "Ç": 137,
      "È": 138,
      "É": 139,
      "Ê": 140,
      "Ë": 141,
      "Ì": 142,
      "Í": 143,
      "Î": 144,
      "Ï": 145,
      "Ð": 146,
      "Ñ": 147,
      "Ò": 148,
      "Ó": 149,
      "Ô": 150,
      "Õ": 151,
      "Ö": 152,
      "×": 153,
      "Ø": 154,
      "Ù": 155,
      "Ú": 156,
      "Û": 157,
      "Ü": 158,
      "Ý": 159,
      "Þ": 160,
      "ß": 161,
      "à": 162,
      "á": 163,
      "â": 164,
      "ã": 165,
      "ä": 166,
      "å": 167,
      "æ": 168,
      "ç": 169,
      "è": 170,
      "é": 171,
      "ê": 172,
      "ë": 173,
      "ì": 174,
      "í": 175,
      "î": 176,
      "ï": 177,
      "ð": 178,
      "ñ": 179,
      "ò": 180,
      "ó": 181,
      "ô": 182,
      "õ": 183,
      "ö": 184,
      "÷": 185,
      "ø": 186,
      "ù": 187,
      "ú": 188,
      "û": 189,
      "ü": 190,
      "ý": 191,
      "þ": 192,
      "ÿ": 193,
      "Ā": 194,
      "ā": 195,
      "Ă": 196,
      "ă": 197,
      "Ą": 198,
      "ą": 199,
      "Ć": 200,
      "ć": 201,
      "Ĉ": 202,
      "ĉ": 203,
      "Ċ": 204,
      "ċ": 205,
      "Č": 206,
      "č": 207,
      "Ď": 208,
      "ď": 209,
      "Đ": 210,
      "đ": 211,
      "Ē": 212,
      "ē": 213,
      "Ĕ": 214,
      "ĕ": 215,
      "Ė": 216,
      "ė": 217,
      "Ę": 218,
      "ę": 219,
      "Ě": 220,
      "ě": 221,
      "Ĝ": 222,
      "ĝ": 223,
      "Ğ": 224,
      "ğ": 225,
      "Ġ": 226,
      "ġ": 227,
      "Ģ": 228,
      "ģ": 229,
      "Ĥ": 230,
      "ĥ": 231,
      "Ħ": 232,
      "ħ": 233,
      "Ĩ": 234,
      "ĩ": 235,
      "Ī": 236,
      "ī": 237,
      "Ĭ": 238,
      "ĭ": 239,
      "Į": 240,
      "į": 241,
      "İ": 242,
      "ı": 243,
      "Ĳ": 244,
      "ĳ": 245,
      "Ĵ": 246,
      "ĵ": 247,
      "Ķ": 248,
      "ķ": 249,
      "ĸ": 250,
      "Ĺ": 251,
      "ĺ": 252,
      "Ļ": 253,
      "ļ": 254,
      "Ľ": 255,
      "ľ": 256,
      "Ŀ": 257,
      "ŀ": 258,
      "Ł": 259,
      "ł": 260,
      "Ń": 261,
      "in": 262,
      "Ġt": 263,
      "Ġa": 264,
      "on": 265,
      "ti": 266,
      "er": 267,
      "en": 268,
      "re": 269,
      "Ġth": 270,
      "or": 271,
      "ing": 272,
      "al": 273,
      "Ġs": 274,
      "es": 275,
      "at": 276,
      "tion": 277,
      "Ġc": 278,
      "Ġthe": 279,
      "Ġp": 280,
      "Ġo": 281,
      "ar": 282,
      "ed": 283,
      "an": 284,
      "is": 285,
      "Ġm": 286,
      "Ġd": 287,
      "ro": 288,
      "Ġf": 289,
      "Ġan": 290,
      "Ġin": 291,
      "it": 292,
      "Ġw": 293,
      "le": 294,
      "ic": 295,
      "Ġof": 296,
      "ation": 297,
      "Ġand": 298,
      "ent": 299,
      "el": 300,
      "as": 301,
      "Ġb": 302,
      "et": 303,
      "Ġto": 304,
      "Ġre": 305,
      "Ġe": 306,
      "ch": 307,
      "od": 308,
      "mp": 309,
      "ra": 310,
      "ur": 311,
      "us": 312,
      "ce": 313,
      "Ġn": 314,
      "Ġ<": 315,
      "ve": 316,
      "ly": 317,
      "Ġl": 318,
      "ec": 319,
      "Ġpro": 320,
      "st": 321,
      "Ġh": 322,
      "ul": 323,
      "Ġfor": 324,
      "ut": 325,
      "ge": 326,
      "ĠT": 327,
      "ith": 328,
      "un": 329,
      "Ġco": 330,
      "odel": 331,
      "ĠL": 332,
      "ow": 333,
      "im": 334,
      "Ġg": 335,
      "Ġon": 336,
      "ver": 337,
      "ig": 338,
      "arn": 339,
      "Ġcon": 340,
      "ab": 341,
      "CT": 342,
      "Ġmodel": 343,
      "Ġex": 344,
      "ate": 345,
      "res": 346,
      "ĠM": 347,
      "Ġthat": 348,
      "if": 349,
      "Ġst": 350,
      "for": 351,
      "arning": 352,
      "Ġis": 353,
      "per": 354,
      "il": 355,
      "Ġ(": 356,
      "ĠA": 357,
      "ach": 358,
      "Ġwith": 359,
      "tic": 360,
      "id": 361,
      "Ġwe": 362,
      "os": 363,
      "Ġle": 364,
      "em": 365,
      "ct": 366,
      "ine": 367,
      "form": 368,
      "Ġdat": 369,
      "ĠC": 370,
      "ity": 371,
      "th": 372,
      "ĠI": 373,
      "ol": 374,
      "qu": 375,
      "iz": 376,
      "pp": 377,
      "ĠW": 378,
      "ment": 379,
      "Ġwh": 380,
      "ork": 381,
      "ĠTh": 382,
      "ĠS": 383,
      "om": 384,
      "Ġal": 385,
      "Ġas": 386,
      "ts": 387,
      "age": 388,
      "ri": 389,
      "ter": 390,
      "Ġsu": 391,
      "ess": 392,
      "Ġcomp": 393,
      "tive": 394,
      "Ġus": 395,
      "ir": 396,
      "gu": 397,
      "Ġthis": 398,
      "ain": 399,
      "ĠIn": 400,
      "Ġapp": 401,
      "ĠWe": 402,
      "Ġv": 403,
      "rain": 404,
      "ST": 405,
      "Ġmet": 406,
      "RA": 407,
      "ations": 408,
      "LE": 409,
      "work": 410,
      "si": 411,
      "Ġres": 412,
      "EN": 413,
      "IT": 414,
      "angu": 415,
      "AB": 416,
      "Ġbe": 417,
      "am": 418,
      "SU": 419,
      "ance": 420,
      "ĠD": 421,
      "JE": 422,
      "ore": 423,
      "ff": 424,
      "END": 425,
      "STRA": 426,
      "SUB": 427,
      "TIT": 428,
      "JECT": 429,
      "TITLE": 430,
      "STRACT": 431,
      "ABSTRACT": 432,
      "SUBJECT": 433,
      "imp": 434,
      "ence": 435,
      "ener": 436,
      "Ġdata": 437,
      "ist": 438,
      "Ġper": 439,
      "ac": 440,
      "ally": 441,
      "Ġby": 442,
      "Ġde": 443,
      "vel": 444,
      "Ġun": 445,
      "ot": 446,
      "Ġen": 447,
      "Ġne": 448,
      "Ġare": 449,
      "ure": 450,
      "hod": 451,
      "Ġac": 452,
      "fer": 453,
      "anguage": 454,
      "ĠE": 455,
      "Ġlearning": 456,
      "Ġmodels": 457,
      "Ġmethod": 458,
      "ĠR": 459,
      "Ġad": 460,
      "Ġpre": 461,
      "ĠLe": 462,
      "ari": 463,
      "ĠF": 464,
      "igh": 465,
      "ĠP": 466,
      "Ġimp": 467,
      "ĠLearning": 468,
      "Ġsh": 469,
      "ding": 470,
      "ran": 471,
      "rom": 472,
      "Ġint": 473,
      "tim": 474,
      "ific": 475,
      "achine": 476,
      "pos": 477,
      "ased": 478,
      "able": 479,
      "ask": 480,
      "di": 481,
      "Ġcl": 482,
      "Ġfrom": 483,
      "Ġgener": 484,
      "ated": 485,
      "du": 486,
      "tions": 487,
      "ble": 488,
      "ap": 489,
      "ign": 490,
      "Ġcan": 491,
      "ĠO": 492,
      "Ġsp": 493,
      "um": 494,
      "ers": 495,
      "Ġpropos": 496,
      "ĠG": 497,
      "ĠN": 498,
      "ĠThe": 499,
      "ep": 500,
      "ex": 501,
      "Ġappro": 502,
      "ich": 503,
      "Ġperform": 504,
      "ant": 505,
      "Ġit": 506,
      "pl": 507,
      "ru": 508,
      "ici": 509,
      "Ġtask": 510,
      "oc": 511,
      "ural": 512,
      "ect": 513,
      "Ġtrain": 514,
      "etwork": 515,
      "ass": 516,
      "ous": 517,
      "resent": 518,
      "og": 519,
      "Ġcont": 520,
      "Ġch": 521,
      "Ġwhich": 522,
      "Ġeff": 523,
      "Ġat": 524,
      "all": 525,
      "ical": 526,
      "ĠB": 527,
      "Ġsy": 528,
      "Ġev": 529,
      "ay": 530,
      "enti": 531,
      "Ġse": 532,
      "der": 533,
      "ting": 534,
      "ĠH": 535,
      "ĠMachine": 536,
      "ction": 537,
      "ph": 538,
      "Ġpar": 539,
      "alu": 540,
      "&#": 541,
      "ten": 542,
      "ms": 543,
      "ag": 544,
      "Ġor": 545,
      "Ġour": 546,
      "Ġapproach": 547,
      "ulti": 548,
      "Ġshow": 549,
      "gor": 550,
      "ization": 551,
      "ents": 552,
      "Ġpa": 553,
      "omp": 554,
      "dic": 555,
      "aset": 556,
      "ext": 557,
      "ility": 558,
      "Ġperformance": 559,
      "enc": 560,
      "op": 561,
      "Ġk": 562,
      "utation": 563,
      "ion": 564,
      "ds": 565,
      "se": 566,
      "rans": 567,
      "Ġdataset": 568,
      "ual": 569,
      "rate": 570,
      "ese": 571,
      "ies": 572,
      "gorith": 573,
      "cess": 574,
      "ere": 575,
      "LM": 576,
      "ie": 577,
      "ram": 578,
      "ell": 579,
      "ĠLanguage": 580,
      "Ġresul": 581,
      "Ġqu": 582,
      "Ġnetwork": 583,
      "ech": 584,
      "Ġop": 585,
      "stem": 586,
      "Ġalgorith": 587,
      "rib": 588,
      "Ġdif": 589,
      "Ġsc": 590,
      "raph": 591,
      "Ġinc": 592,
      "est": 593,
      "ug": 594,
      "Ġclass": 595,
      "Ġmethods": 596,
      "rac": 597,
      "Ġtraining": 598,
      "ud": 599,
      "Ġfe": 600,
      "are": 601,
      "onst": 602,
      "ves": 603,
      "Ġproble": 604,
      "Ġno": 605,
      "Ġinter": 606,
      "act": 607,
      "lic": 608,
      "Ġbo": 609,
      "Ġrep": 610,
      "ating": 611,
      "ution": 612,
      "now": 613,
      "amp": 614,
      "Ġsystem": 615,
      "Ġacc": 616,
      "Ġmulti": 617,
      "ĠComp": 618,
      "ad": 619,
      "ative": 620,
      "ak": 621,
      "aly": 622,
      "Ġdem": 623,
      "ĠThis": 624,
      "Ġpaper": 625,
      "sion": 626,
      "ven": 627,
      "ther": 628,
      "Ġar": 629,
      "ack": 630,
      "arch": 631,
      "Ġbet": 632,
      "ave": 633,
      "Ġpredic": 634,
      "ust": 635,
      "vid": 636,
      "Ġvari": 637,
      "39": 638,
      "Ġout": 639,
      "Ġdi": 640,
      "mb": 641,
      "Ġlanguage": 642,
      "Ġusing": 643,
      "ĠU": 644,
      "Ġimpro": 645,
      "Ġrec": 646,
      "Ġexper": 647,
      "Ġpropose": 648,
      "our": 649,
      "ures": 650,
      "arge": 651,
      "ort": 652,
      "Ġset": 653,
      "Ġhigh": 654,
      "ruct": 655,
      "Ġdis": 656,
      "Ġsuch": 657,
      "Ġtasks": 658,
      "based": 659,
      "and": 660,
      "Ġexpl": 661,
      "Ġwork": 662,
      "Ġhave": 663,
      "Ġover": 664,
      "led": 665,
      "ular": 666,
      "Ġdes": 667,
      "Ġresults": 668,
      "Ġevalu": 669,
      "les": 670,
      "Ġdiffer": 671,
      "ates": 672,
      "rame": 673,
      "ties": 674,
      "Ġob": 675,
      "ability": 676,
      "Ġdemonst": 677,
      "Ġthese": 678,
      "Ġtrans": 679,
      "ramework": 680,
      "tical": 681,
      "Ġoptim": 682,
      "ĠOur": 683,
      "mar": 684,
      "ard": 685,
      "formation": 686,
      "und": 687,
      "vers": 688,
      "Ġrepresent": 689,
      "anc": 690,
      "ni": 691,
      "Ġhas": 692,
      "Ġunder": 693,
      "Ġdist": 694,
      "ugh": 695,
      "Ġtheir": 696,
      "Ġrel": 697,
      "ile": 698,
      "ving": 699,
      "ong": 700,
      "ever": 701,
      "of": 702,
      "Ġanaly": 703,
      "up": 704,
      "vi": 705,
      "pec": 706,
      "Ġcons": 707,
      "Ġframework": 708,
      "Ġro": 709,
      "ĠComputation": 710,
      "Ġsign": 711,
      "we": 712,
      "Ġag": 713,
      "Ġknow": 714,
      "ric": 715,
      "ost": 716,
      "ss": 717,
      "Ġeffec": 718,
      "Ġnot": 719,
      "ments": 720,
      "ime": 721,
      "LMs": 722,
      "dition": 723,
      "Ġprovid": 724,
      "ail": 725,
      "Ġnew": 726,
      "Ġr": 727,
      "end": 728,
      "rodu": 729,
      "ledge": 730,
      "tain": 731,
      "su": 732,
      "owever": 733,
      "ĠEx": 734,
      "Ġneural": 735,
      "ĠTo": 736,
      "omain": 737,
      "the": 738,
      "ors": 739,
      "sive": 740,
      "chie": 741,
      "allen": 742,
      "Ġachie": 743,
      "ati": 744,
      "lex": 745,
      "ary": 746,
      "Ġinformation": 747,
      "Ġexperim": 748,
      "Ġdec": 749,
      "wo": 750,
      "Ġbased": 751,
      "Ġgraph": 752,
      "ross": 753,
      "Ġab": 754,
      "ress": 755,
      "Ġstate": 756,
      "Ġfeat": 757,
      "ial": 758,
      "Ġproblem": 759,
      "Ġmore": 760,
      "Ġdatasets": 761,
      "tif": 762,
      "Ġchallen": 763,
      "Ġfin": 764,
      "so": 765,
      "),": 766,
      "ling": 767,
      "ification": 768,
      "ase": 769,
      "Ġdet": 770,
      "Ġprocess": 771,
      "Ġall": 772,
      "Ġtwo": 773,
      "Ġman": 774,
      "Ġproposed": 775,
      "Ġsub": 776,
      "out": 777,
      "ision": 778,
      "ween": 779,
      "ĠHowever": 780,
      "Ġintrodu": 781,
      "Ġgeneral": 782,
      "Ġdifferent": 783,
      "Ġsol": 784,
      "Ġ$": 785,
      "Ġbetween": 786,
      "Ġalgorithm": 787,
      "Ġalso": 788,
      "put": 789,
      "Ġcap": 790,
      "ized": 791,
      "istic": 792,
      "icient": 793,
      "isting": 794,
      "Ġlarge": 795,
      "ely": 796,
      "ize": 797,
      "mm": 798,
      "Ġtime": 799,
      "Ġboth": 800,
      "Ġreal": 801,
      "amet": 802,
      "uman": 803,
      "Ġlearn": 804,
      "Ġits": 805,
      "Ġben": 806,
      "Ġcor": 807,
      "ency": 808,
      "til": 809,
      "Ġpresent": 810,
      "Ġknowledge": 811,
      "ved": 812,
      "ree": 813,
      "NN": 814,
      "Ġsignific": 815,
      "ory": 816,
      "ĠModel": 817,
      "ight": 818,
      "Ġreg": 819,
      "yp": 820,
      "ip": 821,
      "ential": 822,
      "Ġnovel": 823,
      "mark": 824,
      "Ġdemonstrate": 825,
      "Ġuse": 826,
      "sis": 827,
      "Ġfun": 828,
      "Ġinto": 829,
      "Ġapplic": 830,
      "Ġdomain": 831,
      "ace": 832,
      "Ġsignificant": 833,
      "Ġtech": 834,
      "art": 835,
      "abel": 836,
      "Ġsamp": 837,
      "lo": 838,
      "ire": 839,
      "Ġdisc": 840,
      "aus": 841,
      "ality": 842,
      "ages": 843,
      "Ġnetworks": 844,
      "Ġsim": 845,
      "ness": 846,
      "vely": 847,
      "Ġstud": 848,
      "earch": 849,
      "urac": 850,
      "Ġdistrib": 851,
      "Ġstruct": 852,
      "ges": 853,
      "Ġimprove": 854,
      "yn": 855,
      "olog": 856,
      "Ġhuman": 857,
      "ty": 858,
      "ason": 859,
      ").": 860,
      "rough": 861,
      "ret": 862,
      "arg": 863,
      "uracy": 864,
      "Ġconst": 865,
      "Ġcomplex": 866,
      "Ġaut": 867,
      "velop": 868,
      "ise": 869,
      "Ġused": 870,
      "Ġme": 871,
      "ĠRe": 872,
      "ellig": 873,
      "ĠCon": 874,
      "Ġid": 875,
      "Ġass": 876,
      "Ġaccuracy": 877,
      "ode": 878,
      "ference": 879,
      "Ġtext": 880,
      "Ġwhere": 881,
      "chmark": 882,
      "Ġtra": 883,
      "imit": 884,
      "Ġcomm": 885,
      "Ġdevelop": 886,
      "Ġdeep": 887,
      "irst": 888,
      "icial": 889,
      "urther": 890,
      "Ġdesign": 891,
      "Ġexisting": 892,
      "entif": 893,
      "ection": 894,
      "Ġresearch": 895,
      "ia": 896,
      "Ġwhile": 897,
      "Ġrequ": 898,
      "Ġbeen": 899,
      "Ġsystems": 900,
      "Ġes": 901,
      "bust": 902,
      "ome": 903,
      "Ġ1": 904,
      "Ġadd": 905,
      "Ġpl": 906,
      "ish": 907,
      "ath": 908,
      "Ġemp": 909,
      "ful": 910,
      "xim": 911,
      "Ġnum": 912,
      "Ġwor": 913,
      "Ġalgorithms": 914,
      "Ġmachine": 915,
      "niqu": 916,
      "ens": 917,
      "ied": 918,
      "Ġanalysis": 919,
      "atic": 920,
      "Ġstudy": 921,
      "Ġwhen": 922,
      "ities": 923,
      "perv": 924,
      "ised": 925,
      "Ġacross": 926,
      "line": 927,
      "Ġatt": 928,
      "ast": 929,
      "Ġ2": 930,
      "tificial": 931,
      "Ġtechniqu": 932,
      "elligence": 933,
      "lu": 934,
      "Ġexperiments": 935,
      "Ġbenchmark": 936,
      "ĠNe": 937,
      "ik": 938,
      "Ġlimit": 939,
      "ĠAr": 940,
      "oin": 941,
      "RL": 942,
      "34": 943,
      "Ġaddress": 944,
      "ld": 945,
      "Ġclassification": 946,
      "Ġup": 947,
      "ib": 948,
      "Ġran": 949,
      "Ġbut": 950,
      "emp": 951,
      "ser": 952,
      "over": 953,
      "ĠInt": 954,
      "Ġreason": 955,
      "chit": 956,
      "ĠLLMs": 957,
      "ynam": 958,
      "Ġeach": 959,
      "ill": 960,
      "Ġthan": 961,
      "Ġnon": 962,
      "Ġform": 963,
      "Ġparamet": 964,
      "train": 965,
      "ĠK": 966,
      "ently": 967,
      "ĠV": 968,
      "perform": 969,
      "Ġonly": 970,
      "Ġext": 971,
      "Ġpri": 972,
      "urr": 973,
      "lation": 974,
      "tern": 975,
      "Ġwell": 976,
      "Ġspec": 977,
      "Ġeffecti": 978,
      "ource": 979,
      "mbed": 980,
      "duc": 981,
      "ared": 982,
      "Ġmod": 983,
      "chitect": 984,
      "Ġthrough": 985,
      "Ġapproaches": 986,
      "Ġexp": 987,
      "Ġav": 988,
      "olic": 989,
      "cep": 990,
      "Ġfirst": 991,
      "stan": 992,
      "ging": 993,
      "wor": 994,
      "Ġcomputation": 995,
      "Ġrobust": 996,
      "pervised": 997,
      "Ġintroduce": 998,
      "Ġfeatures": 999,
      "ynamic": 1000,
      "Ġlabel": 1001,
      "ple": 1002,
      "to": 1003,
      "lect": 1004,
      "Ġlow": 1005,
      "mo": 1006,
      "Ġother": 1007,
      "ences": 1008,
      "ĠPro": 1009,
      "Ġpos": 1010,
      "uring": 1011,
      "Ġarchitect": 1012,
      "Ġadap": 1013,
      "ĠEn": 1014,
      "eg": 1015,
      "ber": 1016,
      "Ġoutperform": 1017,
      "ĠAd": 1018,
      "uning": 1019,
      "Ġprediction": 1020,
      "Ġbi": 1021,
      "Ġone": 1022,
      "ines": 1023,
      "tig": 1024,
      "Ġbas": 1025,
      "Ġhow": 1026,
      "ditional": 1027,
      "ĠAn": 1028,
      "Ġnat": 1029,
      "force": 1030,
      "ension": 1031,
      "Ġexten": 1032,
      "Ġmak": 1033,
      "Ġfunction": 1034,
      "ĠArtificial": 1035,
      "Ġim": 1036,
      "radi": 1037,
      "rateg": 1038,
      "mbedding": 1039,
      "Ġph": 1040,
      "Ġvarious": 1041,
      "ide": 1042,
      "Ġefficient": 1043,
      "Ġprovide": 1044,
      "Ġinput": 1045,
      "Ġadv": 1046,
      "Ġidentif": 1047,
      "ĠIntelligence": 1048,
      "eman": 1049,
      "tention": 1050,
      "ĠNetwork": 1051,
      "Ġtyp": 1052,
      "val": 1053,
      "ite": 1054,
      "abil": 1055,
      "Ġser": 1056,
      "Ġincre": 1057,
      "vol": 1058,
      "pon": 1059,
      "ier": 1060,
      "inforce": 1061,
      "Ġcontext": 1062,
      "Ġsetting": 1063,
      "Ġevaluation": 1064,
      "ĠModels": 1065,
      "Ġestim": 1066,
      "Ġreasoning": 1067,
      "rect": 1068,
      "jec": 1069,
      "inforcement": 1070,
      "Ġver": 1071,
      "low": 1072,
      "ctions": 1073,
      "Ġproblems": 1074,
      "Ġmin": 1075,
      "ases": 1076,
      "Ġstructure": 1077,
      "emantic": 1078,
      "ub": 1079,
      "utions": 1080,
      "ix": 1081,
      "Ġmultiple": 1082,
      "Ġcomb": 1083,
      "Ġapplications": 1084,
      "Ġinst": 1085,
      "Ġstrateg": 1086,
      "Ġoften": 1087,
      "Ġpartic": 1088,
      "Ġoptimization": 1089,
      "Ġenc": 1090,
      "Ġy": 1091,
      "Ġmost": 1092,
      "ational": 1093,
      "Ġavail": 1094,
      "Ġgro": 1095,
      "ĠAI": 1096,
      "ider": 1097,
      "Ġmat": 1098,
      "lish": 1099,
      "ĠDe": 1100,
      "ĠNeural": 1101,
      "imension": 1102,
      "Ġspe": 1103,
      "versari": 1104,
      "ances": 1105,
      "izing": 1106,
      "Ġimport": 1107,
      "Ġthey": 1108,
      "Ġsyn": 1109,
      "ward": 1110,
      "Ġnumber": 1111,
      "rol": 1112,
      "iel": 1113,
      "Ġscal": 1114,
      "cer": 1115,
      "Ġdecision": 1116,
      "Ġpr": 1117,
      "Ġdynamic": 1118,
      "her": 1119,
      "Ġques": 1120,
      "ĠTrans": 1121,
      "Ġhe": 1122,
      "Ġextra": 1123,
      "urrent": 1124,
      "ue": 1125,
      "not": 1126,
      "oss": 1127,
      "Ġgeneration": 1128,
      "ocus": 1129,
      ".,": 1130,
      "ression": 1131,
      "Ġtechniques": 1132,
      "Ġsimp": 1133,
      "tiv": 1134,
      "Ġsequ": 1135,
      "Ġwithout": 1136,
      "Ġcol": 1137,
      "Ġdo": 1138,
      "olicy": 1139,
      "ĠSt": 1140,
      "Ġenh": 1141,
      "Ġautom": 1142,
      "ĠQ": 1143,
      "Ġspace": 1144,
      "pecific": 1145,
      "Ġdistribution": 1146,
      "vir": 1147,
      "ĠUn": 1148,
      "erm": 1149,
      "Ġobser": 1150,
      "Ġembedding": 1151,
      "avi": 1152,
      "lement": 1153,
      "Ġavailable": 1154,
      "viron": 1155,
      "arget": 1156,
      "Ġgi": 1157,
      "sw": 1158,
      "ĠRec": 1159,
      "Ġma": 1160,
      "versarial": 1161,
      "Ġmany": 1162,
      "Ġloc": 1163,
      "Ġvia": 1164,
      "tt": 1165,
      "Ġer": 1166,
      "Ġbeh": 1167,
      "Ġbetter": 1168,
      "its": 1169,
      "world": 1170,
      "cal": 1171,
      "ER": 1172,
      "ame": 1173,
      "Ġpot": 1174,
      "Ġfocus": 1175,
      "Ġconsider": 1176,
      "udi": 1177,
      "ĠWh": 1178,
      "Ġvalu": 1179,
      "Ġmo": 1180,
      "ically": 1181,
      "Ġfact": 1182,
      "iew": 1183,
      "sing": 1184,
      "Ġsever": 1185,
      "ey": 1186,
      "Ġu": 1187,
      "pret": 1188,
      "ilar": 1189,
      "Ġfine": 1190,
      "par": 1191,
      "ental": 1192,
      "Ġprac": 1193,
      "Ġrepresentations": 1194,
      "ike": 1195,
      "Ġrepresentation": 1196,
      "con": 1197,
      "oint": 1198,
      "elf": 1199,
      "vious": 1200,
      "veness": 1201,
      "Ġthere": 1202,
      "ces": 1203,
      "Ġinference": 1204,
      "Ġgu": 1205,
      "Ġsemantic": 1206,
      "ition": 1207,
      "ication": 1208,
      "ult": 1209,
      "Ġenviron": 1210,
      "ĠMulti": 1211,
      "Ġtrained": 1212,
      "verse": 1213,
      "Ġdep": 1214,
      "luding": 1215,
      "ying": 1216,
      "Ġutil": 1217,
      "Ġloss": 1218,
      "Ġsignificantly": 1219,
      "uster": 1220,
      "Ġerr": 1221,
      "por": 1222,
      "Ġj": 1223,
      "Ġrequire": 1224,
      "ject": 1225,
      "Ġfurther": 1226,
      "radient": 1227,
      "ights": 1228,
      "Ġtarget": 1229,
      "ose": 1230,
      "Ġdemonstr": 1231,
      "Ġbasel": 1232,
      "fin": 1233,
      "Ġcompared": 1234,
      "Ġmeas": 1235,
      "standing": 1236,
      "Ġcost": 1237,
      "Ġallow": 1238,
      "Ġinteg": 1239,
      "ĠAl": 1240,
      "Ġlever": 1241,
      "Ġdetection": 1242,
      "Ġdesc": 1243,
      "Ġmain": 1244,
      "Ġchallenges": 1245,
      "Ġtest": 1246,
      "oral": 1247,
      "Ġincluding": 1248,
      "Ġprob": 1249,
      "king": 1250,
      "Ġparticular": 1251,
      "ĠLLM": 1252,
      "Ġ-": 1253,
      "ĠLarge": 1254,
      "lection": 1255,
      "ising": 1256,
      "ĠCh": 1257,
      "Ġfeature": 1258,
      "ound": 1259,
      "Ġlat": 1260,
      "Ġthree": 1261,
      "orm": 1262,
      "ables": 1263,
      "ĠOn": 1264,
      "Ġcomput": 1265,
      "Ġstr": 1266,
      "ator": 1267,
      "Ġmetric": 1268,
      "Ġlay": 1269,
      "Ġconstrain": 1270,
      "Ġ\\": 1271,
      "iciency": 1272,
      "ted": 1273,
      "ĠExper": 1274,
      "Ġbehavi": 1275,
      "atis": 1276,
      "Ġneed": 1277,
      "ps": 1278,
      "echan": 1279,
      "Ġseveral": 1280,
      "ĠGener": 1281,
      "ology": 1282,
      "Ġins": 1283,
      "Ġgo": 1284,
      "Ġspecific": 1285,
      "Ġexamp": 1286,
      "Ġnatural": 1287,
      "ware": 1288,
      "Ġscen": 1289,
      "ĠDeep": 1290,
      "Ġtheore": 1291,
      "ĠGraph": 1292,
      "fficient": 1293,
      "Ġsimilar": 1294,
      "ann": 1295,
      "Ġthen": 1296,
      "Ġsur": 1297,
      "acy": 1298,
      "Ġeffective": 1299,
      "Ġdue": 1300,
      "tial": 1301,
      "inear": 1302,
      "Ġcaus": 1303,
      "Ġthem": 1304,
      "Ġsome": 1305,
      "Ġproper": 1306,
      "Ġcontrol": 1307,
      "Ġapproxim": 1308,
      "ĠPre": 1309,
      "Ġinterpret": 1310,
      "ys": 1311,
      "ian": 1312,
      "de": 1313,
      "Ġpotential": 1314,
      "duct": 1315,
      "Ġattention": 1316,
      "uil": 1317,
      "Ġeffectiveness": 1318,
      "ensive": 1319,
      "uld": 1320,
      "Ġclassif": 1321,
      "NNs": 1322,
      "mall": 1323,
      "bal": 1324,
      "Ġparameters": 1325,
      "Ġmay": 1326,
      "Ġ&#": 1327,
      "Ġevaluate": 1328,
      "Ġmechan": 1329,
      "Ġcomputational": 1330,
      "ced": 1331,
      "Ġmem": 1332,
      "Ġoutperforms": 1333,
      "oder": 1334,
      "vestig": 1335,
      "Ġcompar": 1336,
      "ond": 1337,
      "Ġobjec": 1338,
      "Ġprevious": 1339,
      "aract": 1340,
      "Ġissu": 1341,
      "ower": 1342,
      "usion": 1343,
      "ards": 1344,
      "ough": 1345,
      "swer": 1346,
      "Ġ$\\": 1347,
      "Ġscenari": 1348,
      "Ġdiff": 1349,
      "supervised": 1350,
      "Ġbec": 1351,
      "Ġpers": 1352,
      "air": 1353,
      "Ġpolicy": 1354,
      "Ġquan": 1355,
      "ism": 1356,
      "Ġoper": 1357,
      "ulation": 1358,
      "Ġconver": 1359,
      "Ġcombin": 1360,
      "Ġsing": 1361,
      "ive": 1362,
      "text": 1363,
      "level": 1364,
      "Ġtop": 1365,
      "Ġcommun": 1366,
      "ĠURL": 1367,
      "Ġminim": 1368,
      "Ġprog": 1369,
      "Ġquality": 1370,
      "Ġachieve": 1371,
      "ĠExperim": 1372,
      "als": 1373,
      "Ġkey": 1374,
      "ĠDat": 1375,
      "Ġhtt": 1376,
      "Ġsupp": 1377,
      "Ġconf": 1378,
      "PT": 1379,
      "ains": 1380,
      "ety": 1381,
      "Ġsuc": 1382,
      "Ġrecent": 1383,
      "emporal": 1384,
      "Ġinvestig": 1385,
      "Ġcapt": 1386,
      "Ġenti": 1387,
      "Ġsmall": 1388,
      "00": 1389,
      "Ġcluster": 1390,
      "Ġaim": 1391,
      "abilities": 1392,
      "Ġcode": 1393,
      "Ġstand": 1394,
      "trained": 1395,
      "Ġstudi": 1396,
      "ĠNetworks": 1397,
      "Ġattack": 1398,
      "sh": 1399,
      "Ġlong": 1400,
      "Ġfind": 1401,
      "Ġra": 1402,
      "Ġempir": 1403,
      "Ġagents": 1404,
      "LP": 1405,
      "aracter": 1406,
      "Ġadversarial": 1407,
      "ugment": 1408,
      "anguages": 1409,
      "Ġsingle": 1410,
      "Ġefficiency": 1411,
      "Ġachieves": 1412,
      "former": 1413,
      "lying": 1414,
      "Ġequ": 1415,
      "Ġcommon": 1416,
      "Ġsamples": 1417,
      "Ġpromp": 1418,
      "ĠOp": 1419,
      "Ġrem": 1420,
      "Ġobtain": 1421,
      "Ġintegr": 1422,
      "Ġens": 1423,
      "reh": 1424,
      "ream": 1425,
      "ĠCl": 1426,
      "LLMs": 1427,
      "anced": 1428,
      "Ġarchitecture": 1429,
      "Ġsuccess": 1430,
      "oun": 1431,
      "asing": 1432,
      "Ġrele": 1433,
      "Ġgiven": 1434,
      "Ġprom": 1435,
      "Ġsearch": 1436,
      "Ġgeneralization": 1437,
      "certain": 1438,
      "Ġmed": 1439,
      "reat": 1440,
      "odal": 1441,
      "ĠIt": 1442,
      "Ġany": 1443,
      "Ġlocal": 1444,
      "Ġoutput": 1445,
      "Ġdomains": 1446,
      "gence": 1447,
      "Ġimportant": 1448,
      "ribut": 1449,
      "Ġmodeling": 1450,
      "Ġgradient": 1451,
      "Ġrelations": 1452,
      "ĠFurther": 1453,
      "Ġconsist": 1454,
      "Ġtool": 1455,
      "ĠFor": 1456,
      "ern": 1457,
      "Ġcontin": 1458,
      "duce": 1459,
      "Ġwithin": 1460,
      "Ġ3": 1461,
      "Ġpriv": 1462,
      "Ġind": 1463,
      "cept": 1464,
      "Ġsent": 1465,
      "rie": 1466,
      "iter": 1467,
      "Ġcomplexity": 1468,
      "alid": 1469,
      "Ġinterac": 1470,
      "Ġoptimal": 1471,
      "Ġrespon": 1472,
      "Ġcre": 1473,
      "Ġlinear": 1474,
      "Ġstandard": 1475,
      "Ġlanguages": 1476,
      "eous": 1477,
      "Ġunderstanding": 1478,
      "Ġalign": 1479,
      "Ġcharacter": 1480,
      "Ġstep": 1481,
      "Ġbuil": 1482,
      "Ġhy": 1483,
      "oth": 1484,
      "Ġuser": 1485,
      "ocu": 1486,
      "dom": 1487,
      "ior": 1488,
      "Ġannot": 1489,
      "Ġbest": 1490,
      "rop": 1491,
      "Ġreduc": 1492,
      "epend": 1493,
      "Ġfinding": 1494,
      "Ġeven": 1495,
      "Ġreinforcement": 1496,
      "Ġlog": 1497,
      "Ġret": 1498,
      "Ġlea": 1499,
      "te": 1500,
      "Ġopen": 1501,
      "izes": 1502,
      "astic": 1503,
      "Ġmean": 1504,
      "ature": 1505,
      "Ġduring": 1506,
      "Ġvalid": 1507,
      "Ġimplement": 1508,
      "Ġsimple": 1509,
      "Ġincor": 1510,
      "ars": 1511,
      "Ġlevel": 1512,
      "Ġfunctions": 1513,
      "Ġpat": 1514,
      "cl": 1515,
      "Ġability": 1516,
      "ĠThese": 1517,
      "Ġve": 1518,
      "ĠFin": 1519,
      "Ġgenerate": 1520,
      "Ġtransfer": 1521,
      "Ġlimited": 1522,
      "rid": 1523,
      "Ġchallenging": 1524,
      "Ġcurrent": 1525,
      "Ġagent": 1526,
      "omm": 1527,
      "ral": 1528,
      "vic": 1529,
      "Ġchallenge": 1530,
      "Ġdiverse": 1531,
      "Ġtr": 1532,
      "Ġcall": 1533,
      "Ġhand": 1534,
      "Ġful": 1535,
      "ield": 1536,
      "aging": 1537,
      "cale": 1538,
      "view": 1539,
      "af": 1540,
      "Ġsch": 1541,
      "Ġword": 1542,
      "Ġhttps": 1543,
      "oring": 1544,
      "vari": 1545,
      "erated": 1546,
      "Ġabout": 1547,
      "Ġerror": 1548,
      "ogni": 1549,
      "Ġquestion": 1550,
      "Ġfew": 1551,
      "Ġprior": 1552,
      "ĠSp": 1553,
      "Ġstrong": 1554,
      "Ġorder": 1555,
      "Ġpower": 1556,
      "Ġpub": 1557,
      "gue": 1558,
      "inal": 1559,
      "Ġscenarios": 1560,
      "bo": 1561,
      "Ġanalyz": 1562,
      "Ġaccur": 1563,
      "Ġrobustness": 1564,
      "tit": 1565,
      "Ġautomatic": 1566,
      "Ġway": 1567,
      "volution": 1568,
      "Ġcompreh": 1569,
      "ks": 1570,
      "Ġter": 1571,
      "ately": 1572,
      "training": 1573,
      "ually": 1574,
      "Ġdirect": 1575,
      "Ġpop": 1576,
      "ified": 1577,
      "Ġuncertain": 1578,
      "agn": 1579,
      "ĠWhile": 1580,
      "Ġemplo": 1581,
      "Ġprovides": 1582,
      "Ġoffer": 1583,
      "tuning": 1584,
      "uture": 1585,
      "Ġadapt": 1586,
      "Ġconduct": 1587,
      "Ġend": 1588,
      "Ġsame": 1589,
      "Ġterms": 1590,
      "Ġcri": 1591,
      "oding": 1592,
      "ERT": 1593,
      "Ġpattern": 1594,
      "ĠMore": 1595,
      "Ġso": 1596,
      "Ġsolution": 1597,
      "Ġmemory": 1598,
      "Ġbound": 1599,
      "Ġappl": 1600,
      "Ġextract": 1601,
      "reg": 1602,
      "Ġtheoretical": 1603,
      "atch": 1604,
      "ics": 1605,
      "Ġgenerated": 1606,
      "Ġpo": 1607,
      "Ġincorpor": 1608,
      "Ġsoc": 1609,
      "alth": 1610,
      "ĠData": 1611,
      "tively": 1612,
      "uous": 1613,
      "imensional": 1614,
      "ĠAs": 1615,
      "ense": 1616,
      "Ġprocessing": 1617,
      "ci": 1618,
      "Ġstudies": 1619,
      "Ġed": 1620,
      "ĠAut": 1621,
      "sible": 1622,
      "Ġdepend": 1623,
      "Ġmeasure": 1624,
      "Ġsettings": 1625,
      "Ġself": 1626,
      "ognition": 1627,
      "ark": 1628,
      "thetic": 1629,
      "Ġrandom": 1630,
      "lingual": 1631,
      "ĠRL": 1632,
      "Ġdial": 1633,
      "Ġexplore": 1634,
      "Ġspeech": 1635,
      "more": 1636,
      "hip": 1637,
      "Ġseries": 1638,
      "Ġassess": 1639,
      "Net": 1640,
      "orec": 1641,
      "ederated": 1642,
      "Ġtranslation": 1643,
      "Ġcapabilities": 1644,
      "Ġem": 1645,
      "ruction": 1646,
      "eng": 1647,
      "ax": 1648,
      "imin": 1649,
      "Ġeffectively": 1650,
      "ayes": 1651,
      "Ġchan": 1652,
      "Ġfuture": 1653,
      "fore": 1654,
      "Ġdocu": 1655,
      "Ġbenchmarks": 1656,
      "Ġsample": 1657,
      "Ġonline": 1658,
      "ources": 1659,
      "own": 1660,
      "one": 1661,
      "Ġlike": 1662,
      "Ġtok": 1663,
      "Ġmetrics": 1664,
      "chastic": 1665,
      "gg": 1666,
      "Ġfound": 1667,
      "shot": 1668,
      "ĠFurthermore": 1669,
      "Ġpredict": 1670,
      "Ġstrategy": 1671,
      "Ġ20": 1672,
      "Ġsuper": 1673,
      "Ġgraphs": 1674,
      "lobal": 1675,
      "ead": 1676,
      "Ġexamples": 1677,
      "ingu": 1678,
      "ses": 1679,
      "scale": 1680,
      "Ġgenerative": 1681,
      "Ġinf": 1682,
      "specific": 1683,
      "Ġindi": 1684,
      "Ġcorre": 1685,
      "ultim": 1686,
      "ov": 1687,
      "ected": 1688,
      "odes": 1689,
      "Ġimage": 1690,
      "Ġpublic": 1691,
      "ible": 1692,
      "Ġ--": 1693,
      "isual": 1694,
      "Ġlatent": 1695,
      "ogen": 1696,
      "Ġam": 1697,
      "Ġder": 1698,
      "Ġhel": 1699,
      "sp": 1700,
      "Ġcase": 1701,
      "Ġdiffic": 1702,
      "ules": 1703,
      "Ġpres": 1704,
      "ether": 1705,
      "ĠBayes": 1706,
      "ators": 1707,
      "Ġprivacy": 1708,
      "Ġstrategies": 1709,
      "valu": 1710,
      "idence": 1711,
      "uch": 1712,
      "old": 1713,
      "ind": 1714,
      "Ġenvironment": 1715,
      "Ġembeddings": 1716,
      "Ġselection": 1717,
      "aking": 1718,
      "Ġidentify": 1719,
      "ĠBy": 1720,
      "Ġincreasing": 1721,
      "ired": 1722,
      "ensi": 1723,
      "Ġlearned": 1724,
      "Ġmis": 1725,
      "Ġparameter": 1726,
      "ably": 1727,
      "Ġanswer": 1728,
      "exts": 1729,
      "Ġcompon": 1730,
      "wards": 1731,
      "verage": 1732,
      "Ġimpact": 1733,
      "Ġshown": 1734,
      "ores": 1735,
      "ĠFinally": 1736,
      "rip": 1737,
      "Ġproperties": 1738,
      "econd": 1739,
      "ner": 1740,
      "iting": 1741,
      "Ġquer": 1742,
      "Ġconstruct": 1743,
      "time": 1744,
      "vant": 1745,
      "Ġbias": 1746,
      "Ġpractical": 1747,
      "Ġdesigned": 1748,
      "anning": 1749,
      "AR": 1750,
      "Ġregular": 1751,
      "ribution": 1752,
      "Ġexplan": 1753,
      "Ġstatis": 1754,
      "Ġobserv": 1755,
      "plo": 1756,
      "Ġfac": 1757,
      "Ġpredictions": 1758,
      "Ġapplied": 1759,
      "ry": 1760,
      "Ġsize": 1761,
      "Ġpair": 1762,
      "till": 1763,
      "ef": 1764,
      "ero": 1765,
      "Ġgap": 1766,
      "Ġwid": 1767,
      "Ġreward": 1768,
      "glish": 1769,
      "ological": 1770,
      "Ġenhance": 1771,
      "Ġsequence": 1772,
      "Ġindivid": 1773,
      "tiz": 1774,
      "Ġcapture": 1775,
      "Ġcritical": 1776,
      "ron": 1777,
      "Ġsum": 1778,
      "oration": 1779,
      "Ġuncertainty": 1780,
      "Ġsynthetic": 1781,
      "Ġbehavior": 1782,
      "Ġreli": 1783,
      "ainst": 1784,
      "orecas": 1785,
      "Ġsource": 1786,
      "ĠDes": 1787,
      "Ġcross": 1788,
      "Ġimproves": 1789,
      "Ġarchitectures": 1790,
      "Ġallows": 1791,
      "Ġretrie": 1792,
      "ierarch": 1793,
      "Ġdef": 1794,
      "ength": 1795,
      "ĠCont": 1796,
      "Ġcoun": 1797,
      "Ġhighl": 1798,
      "Ġapplication": 1799,
      "Ġwill": 1800,
      "arant": 1801,
      "Ġreve": 1802,
      "Ġorig": 1803,
      "Ġmake": 1804,
      "Ġdown": 1805,
      "AN": 1806,
      "Ġris": 1807,
      "Ġlabels": 1808,
      "Ġconvergence": 1809,
      "arante": 1810,
      "Ġvect": 1811,
      "ĠReinforcement": 1812,
      "ĠUsing": 1813,
      "Ġdiscus": 1814,
      "lec": 1815,
      "Ġpol": 1816,
      "Ġempirical": 1817,
      "Ġnoise": 1818,
      "Ġmechanism": 1819,
      "Ġupd": 1820,
      "Ġwas": 1821,
      "urb": 1822,
      "ĠAc": 1823,
      "Ġselect": 1824,
      "Ġcontr": 1825,
      "back": 1826,
      "Ġsaf": 1827,
      "Ġdevelopment": 1828,
      "Ġfindings": 1829,
      "Ġtraditional": 1830,
      "Ġlack": 1831,
      "Ġtypes": 1832,
      "Ġindividual": 1833,
      "Ġglobal": 1834,
      "Ġsupport": 1835,
      "ĠSpecific": 1836,
      "Ġaugment": 1837,
      "Ġagainst": 1838,
      "riven": 1839,
      "ĠOptim": 1840,
      "Ġinvol": 1841,
      "cial": 1842,
      "ood": 1843,
      "Ġexperimental": 1844,
      "Ġconstraints": 1845,
      "eti": 1846,
      "Ġsci": 1847,
      "Ġfair": 1848,
      "Ġemer": 1849,
      "Ġet": 1850,
      "ĠApp": 1851,
      "dimensional": 1852,
      "ould": 1853,
      "Ġtechnique": 1854,
      "ancing": 1855,
      "uc": 1856,
      "eter": 1857,
      "Ġbaseline": 1858,
      "icit": 1859,
      "Ġdimension": 1860,
      "ĠMoreover": 1861,
      "ultimodal": 1862,
      "Ġguarante": 1863,
      "Ġbl": 1864,
      "ially": 1865,
      "ditionally": 1866,
      "Ġpatterns": 1867,
      "Ġbenef": 1868,
      "Ġnam": 1869,
      "ons": 1870,
      "Ġamong": 1871,
      "paramet": 1872,
      "ollow": 1873,
      "rained": 1874,
      "ĠSpecifically": 1875,
      "Ġclustering": 1876,
      "ok": 1877,
      "ires": 1878,
      "Ġbaselines": 1879,
      "ily": 1880,
      "ĠBayesian": 1881,
      "stream": 1882,
      "Ġback": 1883,
      "Ġsolutions": 1884,
      "Ġresult": 1885,
      "ude": 1886,
      "Ġfail": 1887,
      "Ġextensive": 1888,
      "ablish": 1889,
      "duction": 1890,
      "Ġpost": 1891,
      "Ġdynamics": 1892,
      "Ġ.": 1893,
      "Ġindic": 1894,
      "Ġoff": 1895,
      "Ġcalled": 1896,
      "Ġhealth": 1897,
      "ĠQu": 1898,
      "Ġmaxim": 1899,
      "Ġsampling": 1900,
      "Ġmaking": 1901,
      "ets": 1902,
      "Ġi": 1903,
      "AI": 1904,
      "Ġobjective": 1905,
      "Ġrate": 1906,
      "ord": 1907,
      "hib": 1908,
      "establish": 1909,
      "Ġtemporal": 1910,
      "Ġpopular": 1911,
      "Ġgroup": 1912,
      "Ġstill": 1913,
      "Ġsuperior": 1914,
      "Ġsimul": 1915,
      "ernel": 1916,
      "Ġhyper": 1917,
      "tional": 1918,
      "ategor": 1919,
      "Ġincl": 1920,
      "Ġsto": 1921,
      "Ġvalue": 1922,
      "Ġcausal": 1923,
      "ependent": 1924,
      "onal": 1925,
      "Ġusers": 1926,
      "Ġdeterm": 1927,
      "Ġexplain": 1928,
      "ogue": 1929,
      "Ġdeplo": 1930,
      "Ġquestions": 1931,
      "Ġschem": 1932,
      "Ġiter": 1933,
      "ĠMet": 1934,
      "pus": 1935,
      "Ġini": 1936,
      "Ġknown": 1937,
      "Ġimprovement": 1938,
      "Ġsummar": 1939,
      "itig": 1940,
      "av": 1941,
      "Ġsocial": 1942,
      "osition": 1943,
      "Ġlarg": 1944,
      "pite": 1945,
      "Ġrelationship": 1946,
      "oints": 1947,
      "Ġconn": 1948,
      "Ġdetect": 1949,
      "Ġcomprehensive": 1950,
      "ixed": 1951,
      "tically": 1952,
      "ressive": 1953,
      "Ġdescrib": 1954,
      "orecasting": 1955,
      "Ġcontinuous": 1956,
      "Ġdistributions": 1957,
      "eterogen": 1958,
      "ĠRes": 1959,
      "Ġinvestigate": 1960,
      "mental": 1961,
      "rix": 1962,
      "Ġdiscover": 1963,
      "Ġsets": 1964,
      "iers": 1965,
      "ract": 1966,
      "gy": 1967,
      "ĠDis": 1968,
      "Ġvisual": 1969,
      "agnos": 1970,
      "Ġenables": 1971,
      "Ġcru": 1972,
      "Ġrange": 1973,
      "ĠEnglish": 1974,
      "Ġwords": 1975,
      "ored": 1976,
      "sequ": 1977,
      "oci": 1978,
      "Ġaccurate": 1979,
      "pect": 1980,
      "Ġenvironments": 1981,
      "Ġhigher": 1982,
      "Ġmatch": 1983,
      "ient": 1984,
      "Ġnumer": 1985,
      "Ġrequires": 1986,
      "Ġuni": 1987,
      "Ġestablish": 1988,
      "ake": 1989,
      "ĠImp": 1990,
      "tensive": 1991,
      "Ġissue": 1992,
      "arse": 1993,
      "Ġdefin": 1994,
      "learning": 1995,
      "DP": 1996,
      "Ġ4": 1997,
      "Ġ0": 1998,
      "Ġachieved": 1999,
      "Ġpromising": 2000,
      "istics": 2001,
      "Ġstochastic": 2002,
      "Ġattacks": 2003,
      "ibr": 2004,
      "Ġworks": 2005,
      "pecially": 2006,
      "Ġphys": 2007,
      "Ġfield": 2008,
      "pping": 2009,
      "ĠGPT": 2010,
      "Ġneg": 2011,
      "nowledge": 2012,
      "ormal": 2013,
      "Ms": 2014,
      "Ġoriginal": 2015,
      "Ġsupervised": 2016,
      "Ġ5": 2017,
      "ĠSy": 2018,
      "Ġlayer": 2019,
      "Ġcrucial": 2020,
      "Ġeng": 2021,
      "Ġimproved": 2022,
      "inical": 2023,
      "volutional": 2024,
      "ĠWith": 2025,
      "tivity": 2026,
      "Ġremains": 2027,
      "Ġuses": 2028,
      "Ġlimitations": 2029,
      "Ġtheory": 2030,
      "label": 2031,
      "ĠTransformer": 2032,
      "ĠRep": 2033,
      "Ġconcept": 2034,
      "Ġhard": 2035,
      "Ġlower": 2036,
      "Ġinsights": 2037,
      "Ġfeed": 2038,
      "Ġthus": 2039,
      "wise": 2040,
      "requ": 2041,
      "aces": 2042,
      "ays": 2043,
      "ants": 2044,
      "Ġtransform": 2045,
      "Ġcategor": 2046,
      "Ġthose": 2047,
      "Ġable": 2048,
      "ade": 2049,
      "Ġcases": 2050,
      "Ġpossible": 2051,
      "Ġestimation": 2052,
      "ĠClass": 2053,
      "Ġcommunication": 2054,
      "Ġwere": 2055,
      "ĠPredic": 2056,
      "Ġvery": 2057,
      "respon": 2058,
      "sian": 2059,
      "unds": 2060,
      "Ġlayers": 2061,
      "Ġliter": 2062,
      "esting": 2063,
      "ĠNLP": 2064,
      "onom": 2065,
      "Ġexplicit": 2066,
      "Ġexplo": 2067,
      "Ġsentence": 2068,
      "sump": 2069,
      "Ġcompeti": 2070,
      "Ġmitig": 2071,
      "Ġreduce": 2072,
      "Ġrecognition": 2073,
      "Ġspati": 2074,
      "ĠDet": 2075,
      "Ġaddition": 2076,
      "task": 2077,
      "Ġcontent": 2078,
      "Ġregression": 2079,
      ")$": 2080,
      "AS": 2081,
      "Ġcho": 2082,
      "ML": 2083,
      "Ġmon": 2084,
      "Ġespecially": 2085,
      "Ġhelp": 2086,
      "tives": 2087,
      "cent": 2088,
      "Ġdeg": 2089,
      "tun": 2090,
      "Ġbeing": 2091,
      "Ġsolve": 2092,
      "Ġrelated": 2093,
      "atively": 2094,
      "Ġte": 2095,
      "know": 2096,
      "ĠRo": 2097,
      "Ġdeploy": 2098,
      "Ġdoes": 2099,
      "Ġdownstream": 2100,
      "Ġdirectly": 2101,
      "Ġcomple": 2102,
      "oft": 2103,
      "adig": 2104,
      "Ġassump": 2105,
      "Ġprec": 2106,
      "Ġimproving": 2107,
      "Ġnode": 2108,
      "Ġassoci": 2109,
      "ang": 2110,
      "ecess": 2111,
      "alle": 2112,
      "Ġshort": 2113,
      "ditions": 2114,
      "ering": 2115,
      "Ġjoint": 2116,
      "Ġcer": 2117,
      "ĠKnowledge": 2118,
      "ule": 2119,
      "abilistic": 2120,
      "linear": 2121,
      "Ġpresents": 2122,
      "Ġexhib": 2123,
      "Ġz": 2124,
      "Ġfollow": 2125,
      "ierarchical": 2126,
      "Ġyet": 2127,
      "Ġshows": 2128,
      "vices": 2129,
      "Ġrisk": 2130,
      "Ġaltern": 2131,
      "urn": 2132,
      "Ġgoal": 2133,
      "Ġdeveloped": 2134,
      "Ġissues": 2135,
      "ructure": 2136,
      "ĠExperimental": 2137,
      "Ġparticularly": 2138,
      "Ġprobability": 2139,
      "Ġimprovements": 2140,
      "Ġless": 2141,
      "entially": 2142,
      "Ġscore": 2143,
      "Ġeas": 2144,
      "Ġunderst": 2145,
      "Ġaims": 2146,
      "Ġmaintain": 2147,
      "Ġresulting": 2148,
      "Ġagg": 2149,
      "Ġcal": 2150,
      "Ġadvant": 2151,
      "ields": 2152,
      "Ġcorpus": 2153,
      "Ġmedical": 2154,
      "ramm": 2155,
      "Ġrelevant": 2156,
      "Ġcorrespon": 2157,
      "Ġpoints": 2158,
      "Ġparadig": 2159,
      "pective": 2160,
      "20": 2161,
      "Ġsimilarity": 2162,
      "ou": 2163,
      "Ġtechn": 2164,
      "allel": 2165,
      "known": 2166,
      "Ġinitial": 2167,
      "DE": 2168,
      "ĠPar": 2169,
      "Ġgreat": 2170,
      "Ġadditional": 2171,
      "Ġprin": 2172,
      "ĠDec": 2173,
      "ĠAt": 2174,
      "Ġvalues": 2175,
      "Ġaccess": 2176,
      "Ġwidely": 2177,
      "Ġvariables": 2178,
      "eli": 2179,
      "Ġent": 2180,
      "entral": 2181,
      "Ġcoll": 2182,
      "Ġcorrect": 2183,
      "ĠExperiments": 2184,
      "olution": 2185,
      "Ġmatrix": 2186,
      "Ġimportance": 2187,
      "Ġenab": 2188,
      "ĠInter": 2189,
      "entiment": 2190,
      "Ġgenerating": 2191,
      "Ġanalyze": 2192,
      "Ġge": 2193,
      "Ġsubstan": 2194,
      "Ġaverage": 2195,
      "uted": 2196,
      "Ġunderlying": 2197,
      "Ġpracti": 2198,
      "ĠAdditionally": 2199,
      "Ġconditions": 2200,
      "moun": 2201,
      "ice": 2202,
      "Ġweights": 2203,
      "ather": 2204,
      "Ġhighly": 2205,
      "Ġ9": 2206,
      "icies": 2207,
      "omes": 2208,
      "Ġextraction": 2209,
      "rin": 2210,
      "Ġpati": 2211,
      "like": 2212,
      "Ġspeed": 2213,
      "Ġalignment": 2214,
      "Ġamoun": 2215,
      "Ġess": 2216,
      "encies": 2217,
      "Ġcould": 2218,
      "ists": 2219,
      "vex": 2220,
      "esis": 2221,
      "ĠDif": 2222,
      "omet": 2223,
      "itive": 2224,
      "ĠExpl": 2225,
      "Ġif": 2226,
      "Ġsparse": 2227,
      "Ġweight": 2228,
      "Ġheterogen": 2229,
      "pro": 2230,
      "Ġattribut": 2231,
      "arly": 2232,
      "ilit": 2233,
      "ĠFe": 2234,
      "ĠAnaly": 2235,
      "Ġachieving": 2236,
      "Ġstructures": 2237,
      "Ġliterature": 2238,
      "Ġintroduces": 2239,
      "arm": 2240,
      "Ġdire": 2241,
      "emble": 2242,
      "inguistic": 2243,
      "inary": 2244,
      "Ġclassifier": 2245,
      "ears": 2246,
      "}$": 2247,
      "Ġreview": 2248,
      "ĠSh": 2249,
      "Ġaction": 2250,
      "Ġplanning": 2251,
      "Ġcompare": 2252,
      "Ġefficiently": 2253,
      "Ġimplic": 2254,
      "Ġreveal": 2255,
      "Ġ8": 2256,
      "Ġsubs": 2257,
      "Ġkernel": 2258,
      "Ġpoint": 2259,
      "Ġextend": 2260,
      "energy": 2261,
      "me": 2262,
      "Ġsafety": 2263,
      "ĠML": 2264,
      "Ġemploy": 2265,
      "though": 2266,
      "Ġunsupervised": 2267,
      "Ġaggreg": 2268,
      "ĠSe": 2269,
      "ĠJ": 2270,
      "Ġbel": 2271,
      "Ġide": 2272,
      "turb": 2273,
      "Ġproviding": 2274,
      "ob": 2275,
      "ĠBERT": 2276,
      "Ġconvers": 2277,
      "Ġclinical": 2278,
      "ensor": 2279,
      "ause": 2280,
      "Ġwhether": 2281,
      "ither": 2282,
      "Ġaff": 2283,
      "driven": 2284,
      "astive": 2285,
      "Ġfacilit": 2286,
      "Ġrole": 2287,
      "Ġact": 2288,
      "ĠExtensive": 2289,
      "aware": 2290,
      "Ġadop": 2291,
      "Ġfour": 2292,
      "Ġstatistical": 2293,
      "ĠRecent": 2294,
      "ison": 2295,
      "Ġpredictive": 2296,
      "Ġretrieval": 2297,
      "ffic": 2298,
      "ories": 2299,
      "Ġnecess": 2300,
      "Ġprot": 2301,
      "off": 2302,
      "Ġmuch": 2303,
      "Ġenergy": 2304,
      "fact": 2305,
      "Ġfairness": 2306,
      "Ġforecasting": 2307,
      "ands": 2308,
      "ibility": 2309,
      "Ġdiscuss": 2310,
      "Ġzero": 2311,
      "Ġworld": 2312,
      "Ġbounds": 2313,
      "Ġdialogue": 2314,
      "Ġpolicies": 2315,
      "ĠThere": 2316,
      "Ġuseful": 2317,
      "Ġimages": 2318,
      "ived": 2319,
      "Ġnodes": 2320,
      "Ġexploration": 2321,
      "ĠText": 2322,
      "Ġinflu": 2323,
      "ayer": 2324,
      "AT": 2325,
      "jor": 2326,
      "pre": 2327,
      "ĠEvalu": 2328,
      "ĠSystem": 2329,
      "Ġtools": 2330,
      "aussian": 2331,
      "ift": 2332,
      "epar": 2333,
      "Ġprocesses": 2334,
      "Ġpath": 2335,
      "MT": 2336,
      "Ġpreser": 2337,
      "Ġclasses": 2338,
      "AE": 2339,
      "Ġinteractions": 2340,
      "Ġapply": 2341,
      "Ġrely": 2342,
      "Ġcur": 2343,
      "ince": 2344,
      "Ġstructured": 2345,
      "Ġmeaning": 2346,
      "Ġapproximation": 2347,
      "Ġtypically": 2348,
      "Ġcounter": 2349,
      "rete": 2350,
      "Ġtim": 2351,
      "by": 2352,
      "den": 2353,
      "Ġfully": 2354,
      "Ġ7": 2355,
      "Ġmultimodal": 2356,
      "versity": 2357,
      "ify": 2358,
      "Ġbecome": 2359,
      "Ġexample": 2360,
      "Ġrecently": 2361,
      "Ġscale": 2362,
      "Ġref": 2363,
      "Ġvariety": 2364,
      "Ġresource": 2365,
      "ii": 2366,
      "Ġmajor": 2367,
      "Ġdocument": 2368,
      "Ġdemonstrated": 2369,
      "Ġformul": 2370,
      "Ġwide": 2371,
      "Ġcomponents": 2372,
      "aneous": 2373,
      "lated": 2374,
      "Ġprove": 2375,
      "Ġgrow": 2376,
      "ĠProcess": 2377,
      "ĠAdap": 2378,
      "raining": 2379,
      "Ġprim": 2380,
      "Ġproduc": 2381,
      "Ġproced": 2382,
      "Ġfeedback": 2383,
      "abor": 2384,
      "Ġgen": 2385,
      "cing": 2386,
      "Ġmeta": 2387,
      "Ġcollect": 2388,
      "Ġfrequ": 2389,
      "Ġenabling": 2390,
      "Ġexam": 2391,
      "Ġinterest": 2392,
      "Ġspecial": 2393,
      "hood": 2394,
      "Ġsystematic": 2395,
      "ĠFederated": 2396,
      "Ġview": 2397,
      "tics": 2398,
      "Ġdifficult": 2399,
      "Ġfil": 2400,
      "Ġdistributed": 2401,
      "Ġresources": 2402,
      "unda": 2403,
      "\\%": 2404,
      "Ġsolving": 2405,
      "rimin": 2406,
      "Ġsensi": 2407,
      "aster": 2408,
      "Ġsuccessful": 2409,
      "Ġprompt": 2410,
      "Ġleveraging": 2411,
      "ID": 2412,
      "ipel": 2413,
      "Ġadaptive": 2414,
      "Ġmath": 2415,
      "get": 2416,
      "tially": 2417,
      "emi": 2418,
      "Ġautomatically": 2419,
      "isms": 2420,
      "ĠBased": 2421,
      "Ġexplanations": 2422,
      "Ġtraject": 2423,
      "Ġ6": 2424,
      "Ġpairs": 2425,
      "Ġfactors": 2426,
      "QA": 2427,
      "ions": 2428,
      "round": 2429,
      "Ġparadigm": 2430,
      "Ġperturb": 2431,
      "Ġintelligence": 2432,
      "ink": 2433,
      "Ġentity": 2434,
      "ged": 2435,
      "Ġexperiment": 2436,
      "Ġanom": 2437,
      "Ġtowards": 2438,
      "Ġformal": 2439,
      "Ġevaluated": 2440,
      "Ġsecond": 2441,
      "Ġfunda": 2442,
      "Ġparallel": 2443,
      "Ġcertain": 2444,
      "ĠGaussian": 2445,
      "raction": 2446,
      "Ġel": 2447,
      "Ġfull": 2448,
      "Ġcompetitive": 2449,
      "Ġrecomm": 2450,
      "Ġguid": 2451,
      "Ġflex": 2452,
      "come": 2453,
      "Ġemo": 2454,
      "Ġgood": 2455,
      "Ġeither": 2456,
      "ĠAppro": 2457,
      "ĠDespite": 2458,
      "order": 2459,
      "ĠGeneration": 2460,
      "ologies": 2461,
      "Ġtoken": 2462,
      "Ġleading": 2463,
      "Ġadaptation": 2464,
      "gent": 2465,
      "vey": 2466,
      "atical": 2467,
      "ĠCo": 2468,
      "Ġlinguistic": 2469,
      "mooth": 2470,
      "Ġlo": 2471,
      "Ġsk": 2472,
      "ighb": 2473,
      "{\\": 2474,
      "oid": 2475,
      "ans": 2476,
      "Ġquantif": 2477,
      "isy": 2478,
      "Ġobtained": 2479,
      "Ġsuff": 2480,
      "ffor": 2481,
      "Ġcr": 2482,
      "$-": 2483,
      "Ġscores": 2484,
      "Ġartificial": 2485,
      "ĠOptimization": 2486,
      "Ġinterpretability": 2487,
      "Ġresponses": 2488,
      "fter": 2489,
      "Ġunderstand": 2490,
      "Ġactiv": 2491,
      "eler": 2492,
      "Ġlead": 2493,
      "Ġmultilingual": 2494,
      "Ġregret": 2495,
      "cepts": 2496,
      "Ġstates": 2497,
      "math": 2498,
      "Ġinher": 2499,
      "ĠFirst": 2500,
      "Ġprobabilistic": 2501,
      "Ġadvance": 2502,
      "Ġvector": 2503,
      "Ġsentences": 2504,
      "Ġabst": 2505,
      "Ġflow": 2506,
      "Ġsepar": 2507,
      "abular": 2508,
      "Ġyears": 2509,
      "Ġlabeled": 2510,
      "Ġleads": 2511,
      "Ġpipel": 2512,
      "Ġtack": 2513,
      "Ġentities": 2514,
      "Ġcontextual": 2515,
      "ĠRepresent": 2516,
      "GD": 2517,
      "ĠAnalysis": 2518,
      "Ġleverage": 2519,
      "pri": 2520,
      "Ġactions": 2521,
      "Ġessential": 2522,
      "ĠFL": 2523,
      "Ġinputs": 2524,
      "optim": 2525,
      "Ġcontain": 2526,
      "Ġinstances": 2527,
      "Ġbro": 2528,
      "Ġengine": 2529,
      "Ġrepl": 2530,
      "Ġtrade": 2531,
      "Ġevidence": 2532,
      "Ġobserved": 2533,
      "Ġexpert": 2534,
      "Ġrun": 2535,
      "Ġerrors": 2536,
      "brid": 2537,
      "less": 2538,
      "osed": 2539,
      "Ġhist": 2540,
      "Ġeffect": 2541,
      "Ġlearns": 2542,
      "ĠThrough": 2543,
      "Ġground": 2544,
      "Ġsoft": 2545,
      "Ġterm": 2546,
      "bit": 2547,
      "Ġsugg": 2548,
      "Ġsuggest": 2549,
      "Ġartic": 2550,
      "ultaneous": 2551,
      "making": 2552,
      "ĠMo": 2553,
      "Ġoutputs": 2554,
      "Ġrest": 2555,
      "tization": 2556,
      "ĠDetection": 2557,
      "domain": 2558,
      "ital": 2559,
      "ypoth": 2560,
      "Ġresponse": 2561,
      "Ġconven": 2562,
      "ĠMark": 2563,
      "ferences": 2564,
      "Ġreduction": 2565,
      "Ġevaluations": 2566,
      "Ġclassifiers": 2567,
      "MA": 2568,
      "Ġpart": 2569,
      "CL": 2570,
      "Ġshould": 2571,
      "ination": 2572,
      "quality": 2573,
      "Ġmade": 2574,
      "ings": 2575,
      "ĠExisting": 2576,
      "entific": 2577,
      "Ġsentiment": 2578,
      "free": 2579,
      "ĠX": 2580,
      "aries": 2581,
      "Ġassociated": 2582,
      "Ġguarantees": 2583,
      "Ġrules": 2584,
      "Ġdetail": 2585,
      "efficient": 2586,
      "ĠUnder": 2587,
      "eech": 2588,
      "ĠReg": 2589,
      "Ġill": 2590,
      "Ġalong": 2591,
      "Ġbecause": 2592,
      "Ġreducing": 2593,
      "Ġdecomp": 2594,
      "ends": 2595,
      "Ġconcepts": 2596,
      "Ġincrease": 2597,
      "Ġequi": 2598,
      "Ġtransformer": 2599,
      "ĠTra": 2600,
      "Ġleverages": 2601,
      "Ġnature": 2602,
      "Ġmakes": 2603,
      "Ġtraffic": 2604,
      "STM": 2605,
      "vice": 2606,
      "Ġpractice": 2607,
      "red": 2608,
      "Ġinform": 2609,
      "Ġproposes": 2610,
      "cern": 2611,
      "vent": 2612,
      "Ġtri": 2613,
      "Ġencoder": 2614,
      "Ġsuit": 2615,
      "Ġhierarchical": 2616,
      "istribution": 2617,
      "Ġfundamental": 2618,
      "ock": 2619,
      "Ġdiagnos": 2620,
      "Ġempirically": 2621,
      "Ġstructural": 2622,
      "Ġcorresponding": 2623,
      "Ġdistance": 2624,
      "Ġtree": 2625,
      "Ġproduce": 2626,
      "med": 2627,
      "Ġbal": 2628,
      "Ġregularization": 2629,
      "Ġwhat": 2630,
      "Ġcomputing": 2631,
      "Ġvalidate": 2632,
      "Ġbelie": 2633,
      "ĠAutom": 2634,
      "Ġspatial": 2635,
      "source": 2636,
      "PO": 2637,
      "gment": 2638,
      "Ġconcern": 2639,
      "que": 2640,
      "Ġlik": 2641,
      "Ġpersonal": 2642,
      "ording": 2643,
      "tillation": 2644,
      "Ġenable": 2645,
      "Ġmechanisms": 2646,
      "Ġdevices": 2647,
      "Ġsteps": 2648,
      "ises": 2649,
      "Ġtype": 2650,
      "Ġnormal": 2651,
      "Ġlevels": 2652,
      "atform": 2653,
      "Ġtokens": 2654,
      "Ġgame": 2655,
      "Ġeffor": 2656,
      "Ġmathem": 2657,
      "ĠBi": 2658,
      "Ġrelationships": 2659,
      "Ġtexts": 2660,
      "ramming": 2661,
      "cur": 2662,
      "itting": 2663,
      "cipl": 2664,
      "Ġlength": 2665,
      "bility": 2666,
      "Ġaccoun": 2667,
      "Ġfederated": 2668,
      "Ġsatis": 2669,
      "box": 2670,
      "Ġhighlight": 2671,
      "Ġnoisy": 2672,
      "Ġsequences": 2673,
      "Ġdiscrimin": 2674,
      "Ġsimultaneous": 2675,
      "Ġquery": 2676,
      "Ġdescrip": 2677,
      "Ġscheme": 2678,
      "Ġsurp": 2679,
      "Ġamount": 2680,
      "Ġhypoth": 2681,
      "Ġautomated": 2682,
      "Ġensemble": 2683,
      "ograph": 2684,
      "FL": 2685,
      "Ġrespec": 2686,
      "ĠAdversarial": 2687,
      "Ġconsistently": 2688,
      "idden": 2689,
      "Ġrequired": 2690,
      "10": 2691,
      "Ġfilter": 2692,
      "Ġevent": 2693,
      "ropy": 2694,
      "Ġdecisions": 2695,
      "oenc": 2696,
      "Ġpowerful": 2697,
      "Ġdemonstrates": 2698,
      "Ġinterpretable": 2699,
      "ĠMan": 2700,
      "Ġinteraction": 2701,
      "Ġfixed": 2702,
      "Ġphen": 2703,
      "ĠTask": 2704,
      "BERT": 2705,
      "ĠClassification": 2706,
      "eck": 2707,
      "Ġmeasures": 2708,
      "Ġpublicly": 2709,
      "DA": 2710,
      "ute": 2711,
      "ransi": 2712,
      "LU": 2713,
      "lations": 2714,
      "Ġnumerical": 2715,
      "Ġcomparable": 2716,
      "Ġsimpl": 2717,
      "Ġdiffusion": 2718,
      "ustom": 2719,
      "Ġrespectively": 2720,
      "Ġpredicting": 2721,
      "ixt": 2722,
      "Ġdistin": 2723,
      "row": 2724,
      "Ġdiversity": 2725,
      "Ġconvolutional": 2726,
      "ĠTraining": 2727,
      "pid": 2728,
      "Ġhowever": 2729,
      "Ġdocuments": 2730,
      "Ġchanges": 2731,
      "Ġaugmentation": 2732,
      "Ġdetermin": 2733,
      "Ġimplementation": 2734,
      "iring": 2735,
      "Ġheur": 2736,
      "Ġhumans": 2737,
      "Ġexhibit": 2738,
      "Ġacceler": 2739,
      "Ġgain": 2740,
      "Ġmap": 2741,
      "Ġoverall": 2742,
      "raw": 2743,
      "Ġexperi": 2744,
      "Ġcog": 2745,
      "Ġrelation": 2746,
      "GPT": 2747,
      "ading": 2748,
      "urpos": 2749,
      "iv": 2750,
      "Ġprof": 2751,
      "aw": 2752,
      "Ġperspective": 2753,
      "omen": 2754,
      "Ġalternative": 2755,
      "atural": 2756,
      "Ġcli": 2757,
      "Ġrecommend": 2758,
      "Ġcle": 2759,
      "agement": 2760,
      "Ġcapability": 2761,
      "ĠOne": 2762,
      "Ġtopic": 2763,
      "Ġbuild": 2764,
      "Ġobservations": 2765,
      "Ġremain": 2766,
      "Ġsignals": 2767,
      "Ġfactor": 2768,
      "Ġcharacteristics": 2769,
      "ĠSu": 2770,
      "agent": 2771,
      "pects": 2772,
      "19": 2773,
      "sions": 2774,
      "parameter": 2775,
      "asoning": 2776,
      "Ġprogress": 2777,
      "Ġbiases": 2778,
      "ternal": 2779,
      "CA": 2780,
      "onomous": 2781,
      "Ġnamed": 2782,
      "ighting": 2783,
      "Ġbuilding": 2784,
      "Ġplay": 2785,
      "ĠTime": 2786,
      "ĠEmp": 2787,
      "Ġcosts": 2788,
      "Ġexploit": 2789,
      "ĠGeneral": 2790,
      "ĠGP": 2791,
      "Ġshared": 2792,
      "Ġevaluating": 2793,
      "arily": 2794,
      "ĠPer": 2795,
      "Ġgeomet": 2796,
      "Ġlarger": 2797,
      "Ġcogni": 2798,
      "Ġintroduced": 2799,
      "Ġfam": 2800,
      "Ġspaces": 2801,
      "Ġoc": 2802,
      "Ġband": 2803,
      "Ġmodule": 2804,
      "Ġutility": 2805,
      "Ġvary": 2806,
      "Ġeffects": 2807,
      "ash": 2808,
      "Ġcompression": 2809,
      "Ġprovided": 2810,
      "ĠAlthough": 2811,
      "Ġplatform": 2812,
      "ĠMarkov": 2813,
      "Ġnews": 2814,
      "Ġinstance": 2815,
      "Ġweak": 2816,
      "Ġargu": 2817,
      "Ġapproximate": 2818,
      "Ġconducted": 2819,
      "Ġwr": 2820,
      "Ġtreat": 2821,
      "gener": 2822,
      "ĠMe": 2823,
      "Ġestimate": 2824,
      "Ġdiscrete": 2825,
      "labeled": 2826,
      "ĠPrediction": 2827,
      "Ġidentifying": 2828,
      "Ġresearchers": 2829,
      "Ġbase": 2830,
      "Ġcannot": 2831,
      "Ġoffers": 2832,
      "ĠAS": 2833,
      "Ġreconst": 2834,
      "Ġsequential": 2835,
      "En": 2836,
      "mbolic": 2837,
      "OD": 2838,
      "Ġheterogeneous": 2839,
      "Ġconventional": 2840,
      "Ġscientific": 2841,
      "Ġexec": 2842,
      "Ġassum": 2843,
      "agation": 2844,
      "Ġincreasingly": 2845,
      "Ġinduc": 2846,
      "orts": 2847,
      "Ġmethodology": 2848,
      "Ġsources": 2849,
      "Ġneighb": 2850,
      "ames": 2851,
      "Ġqueries": 2852,
      "ĠNatural": 2853,
      "ructured": 2854,
      "Ġru": 2855,
      "Ġcontribut": 2856,
      "Ġinfer": 2857,
      "Ġdri": 2858,
      "Ġassign": 2859,
      "ĠEfficient": 2860,
      "Ġlight": 2861,
      "Ġusually": 2862,
      "rad": 2863,
      "ĠThen": 2864,
      "Ġavoid": 2865,
      "Ġprompts": 2866,
      "Ġimplicit": 2867,
      "Ġcondition": 2868,
      "Ġreport": 2869,
      "Ġfaster": 2870,
      "Ġcomparison": 2871,
      "Ġconsistent": 2872,
      "term": 2873,
      "Ġtextual": 2874,
      "Ġsynth": 2875,
      "Ġphenomen": 2876,
      "Ġcommunity": 2877,
      "Ġsug": 2878,
      "Ġteach": 2879,
      "Ġtre": 2880,
      "ĠSim": 2881,
      "Ġ10": 2882,
      "tuned": 2883,
      "Ġmolec": 2884,
      "Ġchange": 2885,
      "Ġpe": 2886,
      "bf": 2887,
      "aring": 2888,
      "IF": 2889,
      "sc": 2890,
      "Ġsugges": 2891,
      "ĠRobust": 2892,
      "Ġever": 2893,
      "Ġspect": 2894,
      "Ġreduces": 2895,
      "Ġaspects": 2896,
      "Ġunknown": 2897,
      "Ġmanner": 2898,
      "Ġindust": 2899,
      "Ġcapable": 2900,
      "seen": 2901,
      "Ġevents": 2902,
      "Ġclassical": 2903,
      "Ġsummarization": 2904,
      "ili": 2905,
      "Ġnegative": 2906,
      "Ġpass": 2907,
      "Ġcompute": 2908,
      "ĠY": 2909,
      "ĠChin": 2910,
      "ĠCO": 2911,
      "Ġcombination": 2912,
      "Ġsatisf": 2913,
      "Ġcustom": 2914,
      "Ġvision": 2915,
      "SA": 2916,
      "Ġtransi": 2917,
      "ĠReasoning": 2918,
      "oders": 2919,
      "ĠGenerative": 2920,
      "ĠIm": 2921,
      "Ġsynt": 2922,
      "variant": 2923,
      "pport": 2924,
      "alities": 2925,
      "Ġpipeline": 2926,
      "head": 2927,
      "Ġenhancing": 2928,
      "Ġtesting": 2929,
      "Ġedge": 2930,
      "ĠFramework": 2931,
      "Based": 2932,
      "ders": 2933,
      "Ġdescribe": 2934,
      "Ġshowing": 2935,
      "Ġspecifically": 2936,
      "ench": 2937,
      "optimal": 2938,
      "Ġrespect": 2939,
      "Ġcore": 2940,
      "Ġsimultaneously": 2941,
      "Ġsignal": 2942,
      "Ġillust": 2943,
      "care": 2944,
      "ensity": 2945,
      "Ġbinary": 2946,
      "Ġcontrastive": 2947,
      "Ġadj": 2948,
      "Ġtake": 2949,
      "Ġcare": 2950,
      "Ġfast": 2951,
      "Ġacqu": 2952,
      "Ġspars": 2953,
      "Ġcontrast": 2954,
      "hic": 2955,
      "Ġsemantics": 2956,
      "Ġbenefits": 2957,
      "ĠVari": 2958,
      "Ġmaintaining": 2959,
      "acity": 2960,
      "Ġdescent": 2961,
      "sy": 2962,
      "Ġsimulation": 2963,
      "Ġderive": 2964,
      "Ġsufficient": 2965,
      "orph": 2966,
      "Ġapplying": 2967,
      "ĠOpen": 2968,
      "Ġlex": 2969,
      "Ġtackle": 2970,
      "Ġcand": 2971,
      "PI": 2972,
      "ĠPri": 2973,
      "Ġtuning": 2974,
      "Ġscalable": 2975,
      "Ġperforms": 2976,
      "Ġtrac": 2977,
      "oper": 2978,
      "Ġcandid": 2979,
      "Ġmarg": 2980,
      "Ġtimes": 2981,
      "Ġlogic": 2982,
      "In": 2983,
      "gan": 2984,
      "Ġrapid": 2985,
      "ĠApproach": 2986,
      "Ġexternal": 2987,
      "emb": 2988,
      "Ġintern": 2989,
      "Ġthereby": 2990,
      "tle": 2991,
      "ĠWhen": 2992,
      "Ġprocedure": 2993,
      "ĠHuman": 2994,
      "ious": 2995,
      "Ġdiscovery": 2996,
      "Ġhidden": 2997,
      "ĠSelf": 2998,
      "Ġrule": 2999,
      "Ġoffline": 3000,
      "Ġsit": 3001,
      "Ġencoding": 3002,
      "pora": 3003,
      "ĠImpro": 3004,
      "Ġgeneralize": 3005,
      "Ġannotation": 3006,
      "Ġones": 3007,
      "Ġunseen": 3008,
      "--": 3009,
      "ests": 3010,
      "Ġinclud": 3011,
      "isation": 3012,
      "ĠSecond": 3013,
      "otyp": 3014,
      "Ġreliable": 3015,
      "Ġproduct": 3016,
      "Ġrich": 3017,
      "Ġunified": 3018,
      "comes": 3019,
      "ĠExt": 3020,
      "tex": 3021,
      "Ġconditional": 3022,
      "Ġmatching": 3023,
      "Ġstream": 3024,
      "Ġcreate": 3025,
      "Ġdemonstrating": 3026,
      "Ġincorporating": 3027,
      "ĠTow": 3028,
      "Ġprincipl": 3029,
      "uth": 3030,
      "Ġinfluence": 3031,
      "Ġclients": 3032,
      "ring": 3033,
      "Ġsec": 3034,
      "Ġanswering": 3035,
      "Ġappropri": 3036,
      "Ġphysical": 3037,
      "Ġrather": 3038,
      "ĠPl": 3039,
      "ape": 3040,
      "ick": 3041,
      "Ġassumptions": 3042,
      "Ġtru": 3043,
      "Ġcomponent": 3044,
      "TS": 3045,
      "raf": 3046,
      "Ġblack": 3047,
      "Ġdeployment": 3048,
      "Ġhybrid": 3049,
      "Ġcomputationally": 3050,
      "Ġdise": 3051,
      "ĠDisc": 3052,
      "ĠDynamic": 3053,
      "Ġcontexts": 3054,
      "rog": 3055,
      "rams": 3056,
      "Ġsubstantial": 3057,
      "Ġprop": 3058,
      "Ġafter": 3059,
      "Ġconstraint": 3060,
      "class": 3061,
      "grained": 3062,
      "ĠRet": 3063,
      "Ġsemi": 3064,
      "Ġmitigate": 3065,
      "RAG": 3066,
      "ixture": 3067,
      "Ġindicate": 3068,
      "Ġtrust": 3069,
      "SL": 3070,
      "Ġidentification": 3071,
      "Ġhandle": 3072,
      "ĠHere": 3073,
      "ĠTransform": 3074,
      "akes": 3075,
      "ided": 3076,
      "Ġpreviously": 3077,
      "entralized": 3078,
      "ĠChinese": 3079,
      "other": 3080,
      "ĠTherefore": 3081,
      "Ġmissing": 3082,
      "Ġunc": 3083,
      "edical": 3084,
      "Ġmedia": 3085,
      "bitr": 3086,
      "Ġmotiv": 3087,
      "Ġadvances": 3088,
      "Ġpositive": 3089,
      "Ġaccurately": 3090,
      "Ġmust": 3091,
      "Ġpruning": 3092,
      "resource": 3093,
      "TA": 3094,
      "radients": 3095,
      "Ġdeveloping": 3096,
      "Ġrelative": 3097,
      "Ġexpensive": 3098,
      "Ġvectors": 3099,
      "ĠMethod": 3100,
      "elihood": 3101,
      "Ġcar": 3102,
      "Ġscaling": 3103,
      "Ġcombining": 3104,
      "port": 3105,
      "Ġexperts": 3106,
      "Ġconsidered": 3107,
      "ĠEmpir": 3108,
      "Ġdependencies": 3109,
      "Ġcriter": 3110,
      "Ġsince": 3111,
      "ĠInst": 3112,
      "ĠSub": 3113,
      "Ġsmaller": 3114,
      "Ġmathematical": 3115,
      "jective": 3116,
      "Ġsmooth": 3117,
      "emic": 3118,
      "Ġexpected": 3119,
      "Ġparticip": 3120,
      "Ġconsistency": 3121,
      "mmet": 3122,
      "Ġcorpora": 3123,
      "Ġadvanced": 3124,
      "irc": 3125,
      "Ġsens": 3126,
      "wh": 3127,
      "ults": 3128,
      "action": 3129,
      "AC": 3130,
      "eff": 3131,
      "ĠAlgorith": 3132,
      "Ġfinal": 3133,
      "rugg": 3134,
      "Ġpatient": 3135,
      "Ġpresented": 3136,
      "Ġexplicitly": 3137,
      "Ġintegration": 3138,
      "Ġindependent": 3139,
      "Ġattributes": 3140,
      "Ġrates": 3141,
      "Ġdistinct": 3142,
      "Ġboost": 3143,
      "ĠNon": 3144,
      "ĠInformation": 3145,
      "graph": 3146,
      "Ġcombines": 3147,
      "Ġallowing": 3148,
      "yond": 3149,
      "Ġbeyond": 3150,
      "Ġobjectives": 3151,
      "Ġwho": 3152,
      "Ġconvex": 3153,
      "Ġcommonly": 3154,
      "Ġannotated": 3155,
      "Ġstrugg": 3156,
      "context": 3157,
      "Ġtail": 3158,
      "Ġproperty": 3159,
      "Ġdraw": 3160,
      "Ġpoly": 3161,
      "Ġfive": 3162,
      "zz": 3163,
      "ilities": 3164,
      "Ġinstead": 3165,
      "Ġoptimize": 3166,
      "Ġfields": 3167,
      "erior": 3168,
      "versal": 3169,
      "rins": 3170,
      "Ġarea": 3171,
      "Ġactive": 3172,
      "Ġarbitr": 3173,
      "pervision": 3174,
      "Ġsty": 3175,
      "ibration": 3176,
      "Ġattemp": 3177,
      "olving": 3178,
      "ĠQues": 3179,
      "ĠMin": 3180,
      "Ġremark": 3181,
      "ĠHy": 3182,
      "Ġengineering": 3183,
      "uzz": 3184,
      "ifying": 3185,
      "Ġexist": 3186,
      "ĠCor": 3187,
      "Ġadvantages": 3188,
      "ĠCode": 3189,
      "cip": 3190,
      "ĠChat": 3191,
      "fined": 3192,
      "Ġprecision": 3193,
      "Ġmodern": 3194,
      "ĠRecently": 3195,
      "Ġunique": 3196,
      "Ġaccount": 3197,
      "Ġmark": 3198,
      "Ġstability": 3199,
      "ement": 3200,
      "Ġderived": 3201,
      "Ġsuffer": 3202,
      "ĠTranslation": 3203,
      "Ġrequiring": 3204,
      "Ġcom": 3205,
      "Ġobserve": 3206,
      "Ġvariable": 3207,
      "ĠEmbedding": 3208,
      "related": 3209,
      "factual": 3210,
      "Ġhealthcare": 3211,
      "Ġgroups": 3212,
      "Ġanomaly": 3213,
      "Ġreach": 3214,
      "ĠPh": 3215,
      "alluc": 3216,
      "Ġrestric": 3217,
      "Ġtemp": 3218,
      "Ġrequirements": 3219,
      "Ġfoundation": 3220,
      "Ġinstruction": 3221,
      "Ġcognitive": 3222,
      "variate": 3223,
      "Ġrewards": 3224,
      "AD": 3225,
      "Ġautonomous": 3226,
      "step": 3227,
      "Ġdel": 3228,
      "Ġmonit": 3229,
      "igu": 3230,
      "medi": 3231,
      "ank": 3232,
      "itions": 3233,
      "Ġsensitive": 3234,
      "Ġsuitable": 3235,
      "Ġpoor": 3236,
      "Ġcollection": 3237,
      "Ġconc": 3238,
      "urpose": 3239,
      "Ġsubset": 3240,
      "Ġupdates": 3241,
      "SE": 3242,
      "read": 3243,
      "Ġeasily": 3244,
      "Ġexact": 3245,
      "Ġfacilitate": 3246,
      "Ġinsp": 3247,
      "oT": 3248,
      "ĠEvaluation": 3249,
      "Ġdifferential": 3250,
      "CN": 3251,
      "ulty": 3252,
      "ĠSur": 3253,
      "Ġensure": 3254,
      "Ġmapping": 3255,
      "Ġdirections": 3256,
      "Ġnonlinear": 3257,
      "ries": 3258,
      "Ġoperations": 3259,
      "Ġutilize": 3260,
      "ĠGradient": 3261,
      "modal": 3262,
      "Ġcomputer": 3263,
      "Ġcorrelation": 3264,
      "Ġexplanation": 3265,
      "Ġfa": 3266,
      "ĠDiffer": 3267,
      "Ġinclude": 3268,
      "Ġsitu": 3269,
      "Ġovercome": 3270,
      "ĠTowards": 3271,
      "Ġwould": 3272,
      "crip": 3273,
      "Ġbrid": 3274,
      "weight": 3275,
      "Ġvariance": 3276,
      "Ġrefer": 3277,
      "ĠZ": 3278,
      "Ġnecessary": 3279,
      "Ġadvantage": 3280,
      "Ġconsists": 3281,
      "Ġconfidence": 3282,
      "Ġpretrained": 3283,
      "swers": 3284,
      "iness": 3285,
      "ilon": 3286,
      "ĠDi": 3287,
      "textit": 3288,
      "actic": 3289,
      "Ġcombined": 3290,
      "Ġinherent": 3291,
      "Ġinterven": 3292,
      "(\\": 3293,
      "Ġsurvey": 3294,
      "aving": 3295,
      "Ġ`": 3296,
      "rug": 3297,
      "RE": 3298,
      "swering": 3299,
      "ugmented": 3300,
      "Ġcapacity": 3301,
      "Ġcollected": 3302,
      "ĠDecision": 3303,
      "Ġep": 3304,
      "Ġupon": 3305,
      "annel": 3306,
      "Ġaccording": 3307,
      "rising": 3308,
      "Ġconnec": 3309,
      "Ġbroad": 3310,
      "Ġdefined": 3311,
      "Ġassumption": 3312,
      "ĠOver": 3313,
      "Ġminimal": 3314,
      "Ġlink": 3315,
      "layer": 3316,
      "ded": 3317,
      "Ġgames": 3318,
      "Ġevolution": 3319,
      "Ġfocused": 3320,
      "Ġcollabor": 3321,
      "Ġoutcomes": 3322,
      "valent": 3323,
      "Ġrecurrent": 3324,
      "bers": 3325,
      "Ġsegment": 3326,
      "Ġstrength": 3327,
      "face": 3328,
      "ĠAttention": 3329,
      "Ġvide": 3330,
      "Ġmanif": 3331,
      "Ġprompting": 3332,
      "tal": 3333,
      "aim": 3334,
      "Ġrecover": 3335,
      "sequently": 3336,
      "Ġinn": 3337,
      "ata": 3338,
      "Ġbefore": 3339,
      "Ġactivation": 3340,
      "LI": 3341,
      "process": 3342,
      "ope": 3343,
      "rices": 3344,
      "Ġbatch": 3345,
      "Ġstudied": 3346,
      "ĠTransformers": 3347,
      "Ġfinite": 3348,
      "izations": 3349,
      "Ġentire": 3350,
      "Ġvarying": 3351,
      "Ġremo": 3352,
      "Ġdeal": 3353,
      "Ġranking": 3354,
      "ĠBen": 3355,
      "ĠGNNs": 3356,
      "Ġpartial": 3357,
      "Ġframeworks": 3358,
      "gal": 3359,
      "Ġweb": 3360,
      "ĠSemantic": 3361,
      "Ġunlabeled": 3362,
      "Ġbehaviors": 3363,
      "Ġeffic": 3364,
      "Ġdecoding": 3365,
      "Ġprogramming": 3366,
      "ĠGNN": 3367,
      "Ġpast": 3368,
      "veraging": 3369,
      "app": 3370,
      "ott": 3371,
      "Ġjointly": 3372,
      "Ġcomposition": 3373,
      "Ġele": 3374,
      "Ġnamely": 3375,
      "Ġidea": 3376,
      "Ġestimates": 3377,
      "Ġappropriate": 3378,
      "Le": 3379,
      "Ġpreference": 3380,
      "comp": 3381,
      "Ġevery": 3382,
      "Ġanswers": 3383,
      "amb": 3384,
      "AP": 3385,
      "ĠMon": 3386,
      "MI": 3387,
      "Ġrank": 3388,
      "FT": 3389,
      "jection": 3390,
      "Ġefficacy": 3391,
      "SP": 3392,
      "Ġgive": 3393,
      "Ġimbal": 3394,
      "ulner": 3395,
      "Ġgradients": 3396,
      "ampling": 3397,
      "rinsic": 3398,
      "Ġquantization": 3399,
      "urally": 3400,
      "Ġearly": 3401,
      "Ġcalc": 3402,
      "Ġperformed": 3403,
      "Ġenhances": 3404,
      "times": 3405,
      "ĠNo": 3406,
      "ĠRel": 3407,
      "Ġvariational": 3408,
      "ĠHe": 3409,
      "Ġdifferences": 3410,
      "Ġscenario": 3411,
      "Ġsuccessfully": 3412,
      "ife": 3413,
      "Ġintegrating": 3414,
      "atory": 3415,
      "ning": 3416,
      "Ġreliability": 3417,
      "Ġjud": 3418,
      "Ġtrue": 3419,
      "sively": 3420,
      "Ġphase": 3421,
      "ĠSpeech": 3422,
      "ĠInference": 3423,
      "Ġincorporate": 3424,
      "elligent": 3425,
      "Ġupdate": 3426,
      "Ġutilizing": 3427,
      "Ġpreferences": 3428,
      "Ġabs": 3429,
      "ople": 3430,
      "Ġdistillation": 3431,
      "onstrained": 3432,
      "Ġextre": 3433,
      "inking": 3434,
      "dependent": 3435,
      "ingual": 3436,
      "Ġsee": 3437,
      "ĠRecognition": 3438,
      "pol": 3439,
      "Ġstage": 3440,
      "yc": 3441,
      "ĠMost": 3442,
      "Ġinvolves": 3443,
      "Ġskill": 3444,
      "Ġvariants": 3445,
      "ĠDataset": 3446,
      "ogn": 3447,
      "ĠKG": 3448,
      "izer": 3449,
      "Ġchoice": 3450,
      "Ġconcl": 3451,
      "Ġaddresses": 3452,
      "Ġhardware": 3453,
      "Ġpotentially": 3454,
      "iform": 3455,
      "ĠPers": 3456,
      "Ġ202": 3457,
      "IFAR": 3458,
      "Ġow": 3459,
      "Ġbelief": 3460,
      "ĠAss": 3461,
      "Ġscience": 3462,
      "orical": 3463,
      "man": 3464,
      "wit": 3465,
      "ĠSearch": 3466,
      "Ġstruggle": 3467,
      "Ġinnov": 3468,
      "Ġscalability": 3469,
      "ĠUnderstanding": 3470,
      "Ġfar": 3471,
      "Ġmanagement": 3472,
      "Ġphysics": 3473,
      "Ġrece": 3474,
      "Ġgenerates": 3475,
      "Ġorgan": 3476,
      "erial": 3477,
      "space": 3478,
      "Ġshift": 3479,
      "oura": 3480,
      "Ġremarkable": 3481,
      "ĠDial": 3482,
      "Ġreduced": 3483,
      "Ġpatients": 3484,
      "Ġperforming": 3485,
      "Ġclos": 3486,
      "len": 3487,
      "Ġvehic": 3488,
      "Ġdefine": 3489,
      "ump": 3490,
      "resh": 3491,
      "Ġvulner": 3492,
      "Ġmess": 3493,
      "Ġcover": 3494,
      "eps": 3495,
      "Ġincludes": 3496,
      "NI": 3497,
      "Ġconfir": 3498,
      "Ġfocuses": 3499,
      "Ġmask": 3500,
      "ĠDist": 3501,
      "textbf": 3502,
      "ounter": 3503,
      "ler": 3504,
      "tity": 3505,
      "ributions": 3506,
      "Ġautoenc": 3507,
      "Ġdifficulty": 3508,
      "structured": 3509,
      "Ġtheoretically": 3510,
      "Ġfeas": 3511,
      "Ġsparsity": 3512,
      "uting": 3513,
      "Ġdimensions": 3514,
      "Ġcomplete": 3515,
      "Ġdirection": 3516,
      "ĠSystems": 3517,
      "ĠLog": 3518,
      "Ġintroducing": 3519,
      "Ġneeds": 3520,
      "expl": 3521,
      "urity": 3522,
      "Ġemerged": 3523,
      "Ġintegrates": 3524,
      "ĠRepresentation": 3525,
      "ĠQuestion": 3526,
      "000": 3527,
      "Ġyields": 3528,
      "SC": 3529,
      "mediate": 3530,
      "Ġstudent": 3531,
      "Ġaggregation": 3532,
      "Ġtrajectories": 3533,
      "Ġposition": 3534,
      "Ġbenefit": 3535,
      "Ġflexible": 3536,
      "Ġgrowing": 3537,
      "ĠLong": 3538,
      "mpt": 3539,
      "Ġassessment": 3540,
      "ways": 3541,
      "Ġcategories": 3542,
      "ĠEs": 3543,
      "Ġmodalities": 3544,
      "ourse": 3545,
      "ĠNot": 3546,
      "ructions": 3547,
      "ception": 3548,
      "Ġexpression": 3549,
      "ĠCIFAR": 3550,
      "ĠSuch": 3551,
      "Ġexpon": 3552,
      "Ġexc": 3553,
      "ĠContext": 3554,
      "Ġmer": 3555,
      "ĠAg": 3556,
      "arities": 3557,
      "ĠDomain": 3558,
      "Ġrealistic": 3559,
      "Ġupper": 3560,
      "utter": 3561,
      "ĠSyn": 3562,
      "Ġshif": 3563,
      "mis": 3564,
      "getting": 3565,
      "ĠComm": 3566,
      "Ġformulation": 3567,
      "ancial": 3568,
      "Ġinternal": 3569,
      "ems": 3570,
      "olds": 3571,
      "MC": 3572,
      "rank": 3573,
      "igur": 3574,
      "bi": 3575,
      "Ġart": 3576,
      "LLM": 3577,
      "Ġneur": 3578,
      "rep": 3579,
      "Ġversion": 3580,
      "arding": 3581,
      "vergence": 3582,
      "Ġconstrained": 3583,
      "Ġdifferenti": 3584,
      "Ġconsidering": 3585,
      "Ġvaluable": 3586,
      "ma": 3587,
      "Ġsizes": 3588,
      "omial": 3589,
      "ancy": 3590,
      "Ġdynamically": 3591,
      "Ġguide": 3592,
      "Ġreflect": 3593,
      "Ġoptimizing": 3594,
      "variance": 3595,
      "ĠModeling": 3596,
      "Ġextracted": 3597,
      "ĠAtt": 3598,
      "ittle": 3599,
      "ĠMem": 3600,
      "Ġemploys": 3601,
      "ĠQA": 3602,
      "Ġ201": 3603,
      "ĠDiff": 3604,
      "xt": 3605,
      "Ġconstruction": 3606,
      "Ġoffering": 3607,
      "ides": 3608,
      "Ġmight": 3609,
      "ĠWord": 3610,
      "Ġhalluc": 3611,
      "ective": 3612,
      "Ġaddressing": 3613,
      "ĠAdaptive": 3614,
      "Ġanother": 3615,
      "Ġont": 3616,
      "levi": 3617,
      "Ġgenerally": 3618,
      "Ġelect": 3619,
      "ĠEnh": 3620,
      "ulate": 3621,
      "Ġclaim": 3622,
      "Ġincreases": 3623,
      "Ġdatab": 3624,
      "ĠBenchmark": 3625,
      "Ġcomplement": 3626,
      "urrently": 3627,
      "Ġrig": 3628,
      "distribution": 3629,
      "Ġargue": 3630,
      "Ġanalyzing": 3631,
      "GAN": 3632,
      "ĠConvolutional": 3633,
      "Ġsupervision": 3634,
      "Ġarbitrary": 3635,
      "Ġassist": 3636,
      "ild": 3637,
      "ects": 3638,
      "Ġusage": 3639,
      "Ġquantit": 3640,
      "Ġsched": 3641,
      "Ġyield": 3642,
      "Ġiterative": 3643,
      "Ġanalyses": 3644,
      "Ġareas": 3645,
      "li": 3646,
      "tation": 3647,
      "Ġdependency": 3648,
      "Ġarticle": 3649,
      "ĠResults": 3650,
      "ĠGAN": 3651,
      "Ġannotations": 3652,
      "udio": 3653,
      "spired": 3654,
      "Ġdr": 3655,
      "ĠFed": 3656,
      "Ġobservation": 3657,
      "Ġcoher": 3658,
      "Ġpeople": 3659,
      "ĠCross": 3660,
      "Ġwhose": 3661,
      "Ġallevi": 3662,
      "ĠDNN": 3663,
      "Ġsurpass": 3664,
      "Ġpresence": 3665,
      "ractive": 3666,
      "Ġdetermine": 3667,
      "Ġprincip": 3668,
      "ĠProg": 3669,
      "ocal": 3670,
      "Ġlogical": 3671,
      "Ġperturbations": 3672,
      "Ġfollowing": 3673,
      "gether": 3674,
      "Ġtogether": 3675,
      "ĠNew": 3676,
      "%,": 3677,
      "Ġentropy": 3678,
      "andom": 3679,
      "Ġlikelihood": 3680,
      "Ġmeaningful": 3681,
      "ĠChatGPT": 3682,
      "ĠCaus": 3683,
      "Ġemployed": 3684,
      "ĠSer": 3685,
      "ME": 3686,
      "unction": 3687,
      "Ġbuilt": 3688,
      "generated": 3689,
      "^{": 3690,
      "Ġtested": 3691,
      "Ġpretraining": 3692,
      "ĠEff": 3693,
      "Ġobjects": 3694,
      "Ġauth": 3695,
      "Ġequations": 3696,
      "Ġexperience": 3697,
      "ending": 3698,
      "uro": 3699,
      "has": 3700,
      "ention": 3701,
      "Ġprivate": 3702,
      "ear": 3703,
      "Ġenhanced": 3704,
      "osing": 3705,
      "Ġcontribution": 3706,
      "Ġembed": 3707,
      "Ġdetecting": 3708,
      "ads": 3709,
      "Ġtotal": 3710,
      "NLP": 3711,
      "Ġdegrad": 3712,
      "seud": 3713,
      "ĠOnline": 3714,
      "ressed": 3715,
      "Ġnear": 3716,
      "ĠUnlike": 3717,
      "Ġreference": 3718,
      "ĠContin": 3719,
      "Ġturn": 3720,
      "Ġforward": 3721,
      "Ġnext": 3722,
      "Ġencoura": 3723,
      "vance": 3724,
      "orting": 3725,
      "Ġvalidation": 3726,
      "Ġconcerns": 3727,
      "Ġtrajectory": 3728,
      "Ġreveals": 3729,
      "Ġleast": 3730,
      "$,": 3731,
      "ĠProb": 3732,
      "ĠGi": 3733,
      "Ġaffect": 3734,
      "ĠGPU": 3735,
      "ĠBo": 3736,
      "rieval": 3737,
      "Ġclusters": 3738,
      "Ġsl": 3739,
      "Ġdemand": 3740,
      "Ġconfigur": 3741,
      "Ġensuring": 3742,
      "ĠMeta": 3743,
      "Ġutter": 3744,
      "Ġfusion": 3745,
      "Ġir": 3746,
      "Ġhypothesis": 3747,
      "ues": 3748,
      "Ġgains": 3749,
      "illion": 3750,
      "Ġcirc": 3751,
      "Ġface": 3752,
      "ender": 3753,
      "ĠSc": 3754,
      "Ġabilities": 3755,
      "Ġindepend": 3756,
      "Ġmaximum": 3757,
      "Ġdistingu": 3758,
      "Ġdistinguish": 3759,
      "Ġimplemented": 3760,
      "achines": 3761,
      "Ġfamily": 3762,
      "Ġemotion": 3763,
      "bot": 3764,
      "Ġdetailed": 3765,
      "ĠThus": 3766,
      "ĠEmpirical": 3767,
      "Ġexamine": 3768,
      "Ġspeak": 3769,
      "ins": 3770,
      "ĠMultimodal": 3771,
      "ĠAcc": 3772,
      "Ġadvancements": 3773,
      "ĠRandom": 3774,
      "ux": 3775,
      "ĠPolicy": 3776,
      "rup": 3777,
      "Ġrelies": 3778,
      "oriz": 3779,
      "Ġdisease": 3780,
      "fitting": 3781,
      "use": 3782,
      "Ġvi": 3783,
      "Ġred": 3784,
      "orous": 3785,
      "Ġthough": 3786,
      "Ġreprodu": 3787,
      "Ġposterior": 3788,
      "PE": 3789,
      "Ġsurrog": 3790,
      "Ġcomparing": 3791,
      "Ġbrain": 3792,
      "Ġsyntactic": 3793,
      "Ġefforts": 3794,
      "Ġmonitoring": 3795,
      "uzzy": 3796,
      "Ġpreserving": 3797,
      "Ġteacher": 3798,
      "processing": 3799,
      "Ġmining": 3800,
      "Ġillustrate": 3801,
      "ĠSpar": 3802,
      "Ġcapturing": 3803,
      "Ġsubstantially": 3804,
      "ĠMany": 3805,
      "Ġharm": 3806,
      "ĠASR": 3807,
      "Ġobject": 3808,
      "Ġmeans": 3809,
      "Ġbott": 3810,
      "ĠFine": 3811,
      "Con": 3812,
      "Ġtag": 3813,
      "Ġtend": 3814,
      "ĠLo": 3815,
      "Ġstable": 3816,
      "eity": 3817,
      "log": 3818,
      "nomial": 3819,
      "ĠAutomatic": 3820,
      "oming": 3821,
      "Ġdig": 3822,
      "Ġforgetting": 3823,
      "ĠGiven": 3824,
      "Ġintegrated": 3825,
      "Ġdrug": 3826,
      "ocation": 3827,
      "AM": 3828,
      "ĠLSTM": 3829,
      "Ġcent": 3830,
      "he": 3831,
      "ĠEstim": 3832,
      "Ġcombine": 3833,
      "Ġspecialized": 3834,
      "Ġhttp": 3835,
      "Ġabstract": 3836,
      "Ġoutl": 3837,
      "Ġregions": 3838,
      "Ġheuristic": 3839,
      "reak": 3840,
      "Ġrecogn": 3841,
      "emph": 3842,
      "ĠImage": 3843,
      "Ġcandidate": 3844,
      "Ġselected": 3845,
      "Ġdecre": 3846,
      "Ġlargely": 3847,
      "Ġsystematically": 3848,
      "play": 3849,
      "Ġapplicability": 3850,
      "Ġprimarily": 3851,
      "Ġown": 3852,
      "Ġmatrices": 3853,
      "Ġguarantee": 3854,
      "ne": 3855,
      "Ġcentral": 3856,
      "Ġdual": 3857,
      "Ġdecomposition": 3858,
      "ered": 3859,
      "Ġfl": 3860,
      "Ġcontains": 3861,
      "Ġhistorical": 3862,
      "flow": 3863,
      "Ġsimulations": 3864,
      "entang": 3865,
      "Ġoptimized": 3866,
      "Ġcorrelations": 3867,
      "rial": 3868,
      "Ġmagn": 3869,
      "Ġtreatment": 3870,
      "Ġqual": 3871,
      "ĠControl": 3872,
      "mathcal": 3873,
      "cons": 3874,
      "Ġincorporates": 3875,
      "equ": 3876,
      "Ġtopics": 3877,
      "alog": 3878,
      "Ġtailored": 3879,
      "CE": 3880,
      "Ġperson": 3881,
      "iod": 3882,
      "Ġdespite": 3883,
      "ĠTransfer": 3884,
      "Ġways": 3885,
      "umer": 3886,
      "Ġdensity": 3887,
      "MM": 3888,
      "Ġtabular": 3889,
      "rable": 3890,
      "ĠCluster": 3891,
      "Ġmodules": 3892,
      "Ġutilizes": 3893,
      "Ġconversational": 3894,
      "Ġsymbolic": 3895,
      "ader": 3896,
      "Ġtransition": 3897,
      "Ġinvolving": 3898,
      "Ġclient": 3899,
      "Ġemphas": 3900,
      "Ġbiom": 3901,
      "lete": 3902,
      "Ġmanual": 3903,
      "ĠProcessing": 3904,
      "Ġbecomes": 3905,
      "Ġexplored": 3906,
      "Ġdiagnosis": 3907,
      "Ġpersonalized": 3908,
      "Sh": 3909,
      "CO": 3910,
      "ĠRetrieval": 3911,
      "do": 3912,
      "eness": 3913,
      "itation": 3914,
      "Ġseen": 3915,
      "Ġlittle": 3916,
      "Ġphenomenon": 3917,
      "PS": 3918,
      "mart": 3919,
      "Ġmanip": 3920,
      "Ġcalibration": 3921,
      "defined": 3922,
      "Ġstatic": 3923,
      "Ġpossi": 3924,
      "itten": 3925,
      "Ġtransport": 3926,
      "parameters": 3927,
      "ĠSequ": 3928,
      "gments": 3929,
      "Ġintegrate": 3930,
      "ignment": 3931,
      "Ġign": 3932,
      "unding": 3933,
      "oreg": 3934,
      "Ġparti": 3935,
      "Ġreconstruction": 3936,
      "Ġhighlighting": 3937,
      "UC": 3938,
      "Ġconstant": 3939,
      "Ġnar": 3940,
      "forward": 3941,
      "edia": 3942,
      "formed": 3943,
      "atives": 3944,
      "ining": 3945,
      "Ġintrinsic": 3946,
      "Ġamb": 3947,
      "thers": 3948,
      "Ġincreased": 3949,
      "Ġteam": 3950,
      "Ġproject": 3951,
      "rab": 3952,
      "ĠFeature": 3953,
      "Ġlexical": 3954,
      "Ġnotion": 3955,
      "Ġgender": 3956,
      "Ġeasy": 3957,
      "Ġinterpretation": 3958,
      "Ġhandling": 3959,
      "ĠLat": 3960,
      "Ġintelligent": 3961,
      "Ġtransl": 3962,
      "Ġfrequency": 3963,
      "Ġrelease": 3964,
      "ror": 3965,
      "Ġoutperforming": 3966,
      "sych": 3967,
      "Ġrobo": 3968,
      "Ġalgorithmic": 3969,
      "Ġneeded": 3970,
      "Ġcat": 3971,
      "oken": 3972,
      "avig": 3973,
      "iented": 3974,
      "seudo": 3975,
      "$.": 3976,
      "Ġcareful": 3977,
      "%.": 3978,
      "Bench": 3979,
      "ĠMI": 3980,
      "ĠProble": 3981,
      "roup": 3982,
      "itude": 3983,
      "Ġparsing": 3984,
      "Ġbasis": 3985,
      "upl": 3986,
      "ĠContr": 3987,
      "eep": 3988,
      "Ġvers": 3989,
      "ords": 3990,
      "})$": 3991,
      "Ġcounterfactual": 3992,
      "uxili": 3993,
      "Ġmainly": 3994,
      "Ġlegal": 3995,
      "ĠPrevious": 3996,
      "Ġintu": 3997,
      "ĠStud": 3998,
      "Ġmolecular": 3999,
      "QL": 4000,
      "ĠMa": 4001,
      "ĠCNN": 4002,
      "epsilon": 4003,
      "Ġfinancial": 4004,
      "Ġbasic": 4005,
      "convex": 4006,
      "Ġtensor": 4007,
      "ĠAuto": 4008,
      "RI": 4009,
      "Ġverify": 4010,
      "pportun": 4011,
      "uxiliary": 4012,
      "antum": 4013,
      "Ġextended": 4014,
      "attention": 4015,
      "Ġbud": 4016,
      "Ġlimitation": 4017,
      "Ġoverhead": 4018,
      "KG": 4019,
      "Ġelimin": 4020,
      "ynamical": 4021,
      "case": 4022,
      "Ġaround": 4023,
      "Ġsimulated": 4024,
      "Ġsix": 4025,
      "arc": 4026,
      "Ġextension": 4027,
      "SS": 4028,
      "aph": 4029,
      "Ġothers": 4030,
      "Ġrati": 4031,
      "Ġfocusing": 4032,
      "Ġtherefore": 4033,
      "ĠPy": 4034,
      "word": 4035,
      "ĠLow": 4036,
      "Ġbandit": 4037,
      "orest": 4038,
      "Ġscales": 4039,
      "Ġintermediate": 4040,
      "Ġlatency": 4041,
      "Ġaspect": 4042,
      "ographic": 4043,
      "ĠSto": 4044,
      "Ġsoftware": 4045,
      "Ġdriving": 4046,
      "iction": 4047,
      "Ġcontinual": 4048,
      "umption": 4049,
      "Ġclose": 4050,
      "Ġuniform": 4051,
      "lective": 4052,
      "Ġetc": 4053,
      "most": 4054,
      "ĠAb": 4055,
      "Ġvideo": 4056,
      "Ġdegree": 4057,
      "Ġtechnology": 4058,
      "Ġrigorous": 4059,
      "Ġcoord": 4060,
      "Ġdecoder": 4061,
      "Ġoperator": 4062,
      "etic": 4063,
      "ample": 4064,
      "Ġflu": 4065,
      "ĠFrom": 4066,
      "Ġmanually": 4067,
      "ĠCol": 4068,
      "Ġverification": 4069,
      "idel": 4070,
      "Ġtrees": 4071,
      "chron": 4072,
      "ceed": 4073,
      "ĠBuil": 4074,
      "Ġsharing": 4075,
      "ĠState": 4076,
      "Ġcause": 4077,
      "Ġeduc": 4078,
      "Ġelements": 4079,
      "Ġsuperiority": 4080,
      "Ġproof": 4081,
      "ĠQuan": 4082,
      "icro": 4083,
      "Ġinsight": 4084,
      "ĠCausal": 4085,
      "Ġchannel": 4086,
      "Ġgeneralized": 4087,
      "Ġweighted": 4088,
      "GNNs": 4089,
      "ĠDiffusion": 4090,
      "Ġ[": 4091,
      "agnostic": 4092,
      "onsist": 4093,
      "rase": 4094,
      "Ġalways": 4095,
      "des": 4096,
      "Ġcoverage": 4097,
      "Ġgeneraliz": 4098,
      "Ġmaterial": 4099,
      "stage": 4100,
      "Ġvariant": 4101,
      "Ġshifts": 4102,
      "Ġlabeling": 4103,
      "RO": 4104,
      "ta": 4105,
      "Ġstyle": 4106,
      "Ġcaptures": 4107,
      "explored": 4108,
      "Ġneighbor": 4109,
      "Ġvol": 4110,
      "Ġemerging": 4111,
      "Ġcriteria": 4112,
      "Ġexecution": 4113,
      "Ġrepresented": 4114,
      "Ġdepth": 4115,
      "Ġestablished": 4116,
      "Ġdeli": 4117,
      "Ġspectral": 4118,
      "ove": 4119,
      "ĠLinear": 4120,
      "Ġnumerous": 4121,
      "wr": 4122,
      "ĠAll": 4123,
      "Ġsurrogate": 4124,
      "ulations": 4125,
      "worth": 4126,
      "ĠExplain": 4127,
      "Ġthresh": 4128,
      "EG": 4129,
      "Ġconstructed": 4130,
      "ĠMemory": 4131,
      "Ġqualit": 4132,
      "DL": 4133,
      "ĠMT": 4134,
      "Ġdimensionality": 4135,
      "Ġtests": 4136,
      "MDP": 4137,
      "Ġlaw": 4138,
      "series": 4139,
      "Ġdesired": 4140,
      "Ġrecommendation": 4141,
      "LSTM": 4142,
      "Ġpredicted": 4143,
      "Ġsetup": 4144,
      "Ġaudio": 4145,
      "ĠSV": 4146,
      "Ġunders": 4147,
      "Ġnaturally": 4148,
      "Ġsumm": 4149,
      "Ġpropagation": 4150,
      "atorial": 4151,
      "VID": 4152,
      "Ġcontributions": 4153,
      "tr": 4154,
      "Ġserve": 4155,
      "ĠExtraction": 4156,
      "ground": 4157,
      "eless": 4158,
      "ote": 4159,
      "oregressive": 4160,
      "Ġconsumption": 4161,
      "Ġmut": 4162,
      "ĠStochastic": 4163,
      "Ġpolynomial": 4164,
      "side": 4165,
      "Ġinspired": 4166,
      "ĠCons": 4167,
      "Ġoperators": 4168,
      "NIST": 4169,
      "},": 4170,
      "ĠWik": 4171,
      "Aware": 4172,
      "Ġwind": 4173,
      "Ġdrop": 4174,
      "Ġfewer": 4175,
      "go": 4176,
      "Ġheterogeneity": 4177,
      "Ġgeometric": 4178,
      "ĠArab": 4179,
      "Ġidentified": 4180,
      "Eval": 4181,
      "oriented": 4182,
      "Ġmodelling": 4183,
      "reed": 4184,
      "Ġsense": 4185,
      "reser": 4186,
      "ters": 4187,
      "ĠOOD": 4188,
      "ĠSince": 4189,
      "Ġuniversal": 4190,
      "ĠMean": 4191,
      "DEs": 4192,
      "Ġmorph": 4193,
      "Ġpopulation": 4194,
      "ger": 4195,
      "orizon": 4196,
      "Ġden": 4197,
      "Ġsafe": 4198,
      "way": 4199,
      "Ġschemes": 4200,
      "ĠAnswering": 4201,
      "rich": 4202,
      "ĠFair": 4203,
      "Ġbalance": 4204,
      "Ġprov": 4205,
      "Ġhin": 4206,
      "Ġinstructions": 4207,
      "Ġdifference": 4208,
      "ĠTree": 4209,
      "ĠScal": 4210,
      "ationary": 4211,
      "Ġrelatively": 4212,
      "Ġmixture": 4213,
      "Ġperiod": 4214,
      "Ġmargin": 4215,
      "Ġprinciples": 4216,
      "Ġtakes": 4217,
      "Ġsymmet": 4218,
      "Ġtranspar": 4219,
      "ĠId": 4220,
      "Ġnorm": 4221,
      "Ġprogram": 4222,
      "Ġopportun": 4223,
      "Ġinformative": 4224,
      "Ġfactual": 4225,
      "Ġtax": 4226,
      "assive": 4227,
      "ĠPriv": 4228,
      "Ġrepresentative": 4229,
      "Ġsecurity": 4230,
      "Ġrelevance": 4231,
      "Ġauxiliary": 4232,
      "Ġoverlo": 4233,
      "Ġbridge": 4234,
      "Ġbehaviour": 4235,
      "Ġsubject": 4236,
      "Ġprevent": 4237,
      "tein": 4238,
      "ĠBe": 4239,
      "ĠAlgorithm": 4240,
      "Ġcreating": 4241,
      "Ġtruth": 4242,
      "ĠCar": 4243,
      "ĠHow": 4244,
      "rt": 4245,
      "Ġabove": 4246,
      "Ġquantitative": 4247,
      "Ġraw": 4248,
      "Ġargument": 4249,
      ";&#": 4250,
      "AL": 4251,
      "Ġfunctional": 4252,
      "Ġextracting": 4253,
      "GNN": 4254,
      "Ġrepresenting": 4255,
      "Ġinteract": 4256,
      "Ġincomp": 4257,
      "Ġ&": 4258,
      "Ġplatforms": 4259,
      "Ġapplicable": 4260,
      "ym": 4261,
      "}.": 4262,
      "Ġselecting": 4263,
      "ocabular": 4264,
      "ĠSGD": 4265,
      "roph": 4266,
      "andsc": 4267,
      "Ġforms": 4268,
      "ĠOb": 4269,
      "Ġdesigning": 4270,
      "ocabulary": 4271,
      "idelity": 4272,
      "ange": 4273,
      "Ġgeneric": 4274,
      "Ġdeployed": 4275,
      "Ġbottlen": 4276,
      "ined": 4277,
      "tized": 4278,
      "Ġeffort": 4279,
      "Bo": 4280,
      "Ġgra": 4281,
      "Ġformat": 4282,
      "Ġsoci": 4283,
      "SM": 4284,
      "ration": 4285,
      "Ġtoward": 4286,
      "Ġsensitivity": 4287,
      "Ġexplores": 4288,
      "Ġencode": 4289,
      "Ġprograms": 4290,
      "Ġlibr": 4291,
      "Ġlimits": 4292,
      "CG": 4293,
      "Ns": 4294,
      "Ġasy": 4295,
      "Ġcontaining": 4296,
      "ĠFact": 4297,
      "Ġanomal": 4298,
      "Ġemploying": 4299,
      "lam": 4300,
      "ĠOut": 4301,
      "Ġfree": 4302,
      "Ġchain": 4303,
      "ĠConst": 4304,
      "Ġocc": 4305,
      "Ġretain": 4306,
      "Ġsegmentation": 4307,
      "eta": 4308,
      "ĠST": 4309,
      "Ġjust": 4310,
      "AG": 4311,
      "Ġfra": 4312,
      "Ġinconsist": 4313,
      "Ġvariations": 4314,
      "Ġhom": 4315,
      "idual": 4316,
      "ctional": 4317,
      "Ġquantify": 4318,
      "ĠArabic": 4319,
      "Ġsensor": 4320,
      "rammar": 4321,
      "Ġgoals": 4322,
      "Ġconfirm": 4323,
      "ĠEntity": 4324,
      "Ġprobabilities": 4325,
      "Ġserver": 4326,
      "Ġmaps": 4327,
      "Ġunits": 4328,
      "Agent": 4329,
      "Ġoccur": 4330,
      "ĠImproving": 4331,
      "ited": 4332,
      "ices": 4333,
      "max": 4334,
      "Ġsynthes": 4335,
      "ird": 4336,
      "ĠCom": 4337,
      "Re": 4338,
      "aged": 4339,
      "Ġhaving": 4340,
      "Ġminimizing": 4341,
      "Ġhelps": 4342,
      "Ġsynthesis": 4343,
      "Ġpsych": 4344,
      "ector": 4345,
      "Ġinverse": 4346,
      "ĠTemporal": 4347,
      "ĠLabel": 4348,
      "Ġestimating": 4349,
      "Ġindividuals": 4350,
      "Ġperformances": 4351,
      "Ġblock": 4352,
      "ĠMat": 4353,
      "Ġcollaborative": 4354,
      "ching": 4355,
      "ĠOr": 4356,
      "Ġadjust": 4357,
      "Ġpromise": 4358,
      "tices": 4359,
      "Ġlearner": 4360,
      "sequence": 4361,
      "Ġsuggests": 4362,
      "Ġspl": 4363,
      "ĠRed": 4364,
      "Ġlast": 4365,
      "dec": 4366,
      "ulated": 4367,
      "ĠBuilding": 4368,
      "ocol": 4369,
      "ĠUni": 4370,
      "Ġarticles": 4371,
      "izers": 4372,
      "Ġclosed": 4373,
      "Ġdialog": 4374,
      "ĠTop": 4375,
      "ĠGo": 4376,
      "Ġ12": 4377,
      "Ġflexibility": 4378,
      "Ġpseudo": 4379,
      "Ġrev": 4380,
      "Ġexplainability": 4381,
      "ĠHigh": 4382,
      "Ġprecise": 4383,
      "Ġsummaries": 4384,
      "CR": 4385,
      "Ġinteractive": 4386,
      "ĠApplic": 4387,
      "ĠIdentif": 4388,
      "ater": 4389,
      "Ġpurpose": 4390,
      "Ġregarding": 4391,
      "ĠSum": 4392,
      "onomy": 4393,
      "Ġassume": 4394,
      "Ġdynamical": 4395,
      "Ġprototyp": 4396,
      "Ġhypothes": 4397,
      "pped": 4398,
      "Ġmagnitude": 4399,
      "uming": 4400,
      "ĠSO": 4401,
      "Ġformulate": 4402,
      "Ġdescriptions": 4403,
      "ĠContrastive": 4404,
      "$\\": 4405,
      "Ġfinet": 4406,
      "ĠInterpret": 4407,
      "Ġnavig": 4408,
      "enal": 4409,
      "Ġtechnical": 4410,
      "Ġhyperparameter": 4411,
      "Ġprimary": 4412,
      "ĠGu": 4413,
      "ĠHierarchical": 4414,
      "Ġundersc": 4415,
      "Ġoverfitting": 4416,
      "ĠClustering": 4417,
      "Ġread": 4418,
      "Ġmanifold": 4419,
      "ĠSeries": 4420,
      "HR": 4421,
      "ĠUnsupervised": 4422,
      "ĠGraphs": 4423,
      "ĠMonte": 4424,
      "IN": 4425,
      "Ġimpressive": 4426,
      "Ġreturn": 4427,
      "rele": 4428,
      "qrt": 4429,
      "reserving": 4430,
      "ĠDNNs": 4431,
      "Ġproduces": 4432,
      "Ġskills": 4433,
      "elling": 4434,
      "ecting": 4435,
      "Ġredund": 4436,
      "Ġshowed": 4437,
      "Ġregion": 4438,
      "Ġparts": 4439,
      "eting": 4440,
      "Ġconflic": 4441,
      "Ġgenerator": 4442,
      "ended": 4443,
      "oded": 4444,
      "Ġattribute": 4445,
      "Ġdegradation": 4446,
      "Ġdefinition": 4447,
      "sqrt": 4448,
      "ening": 4449,
      "Ġmixed": 4450,
      "Ġdeterministic": 4451,
      "Ġgrid": 4452,
      "Ġdepends": 4453,
      "ressing": 4454,
      "lexity": 4455,
      "Ġstatistics": 4456,
      "Ġhighlights": 4457,
      "Ġposes": 4458,
      "Ġdiscourse": 4459,
      "ĠAdaptation": 4460,
      "ĠRepresentations": 4461,
      "point": 4462,
      "ĠDP": 4463,
      "Ġtransformation": 4464,
      "Ġquick": 4465,
      "Ġtypical": 4466,
      "Ġdev": 4467,
      "Ġconversation": 4468,
      "Ġslow": 4469,
      "oph": 4470,
      "ĠSci": 4471,
      "Ġheuristics": 4472,
      "Ġdense": 4473,
      "lama": 4474,
      "Ġcreated": 4475,
      "Ġrisks": 4476,
      "Ġprinciple": 4477,
      "ithful": 4478,
      "ĠRecurrent": 4479,
      "Ġinductive": 4480,
      "ĠCurrent": 4481,
      "irable": 4482,
      "Ġconnection": 4483,
      "ein": 4484,
      "Ġcompact": 4485,
      "Ġtechnologies": 4486,
      "ĠHyper": 4487,
      "Ġcell": 4488,
      "ĠAm": 4489,
      "omic": 4490,
      "ĠOff": 4491,
      "Ġimplications": 4492,
      "ĠCOVID": 4493,
      "Ġalleviate": 4494,
      "isition": 4495,
      "ĠMDP": 4496,
      "Ps": 4497,
      "ĠSparse": 4498,
      "ĠCompreh": 4499,
      "ĠCompared": 4500,
      "Ġeth": 4501,
      "Ġplan": 4502,
      "ĠEqu": 4503,
      "Ġoperation": 4504,
      "Ġbounded": 4505,
      "Ġlikely": 4506,
      "Ġextrem": 4507,
      "uling": 4508,
      "ĠSoc": 4509,
      "Ġamounts": 4510,
      "oice": 4511,
      "Ġitself": 4512,
      "Ġexpect": 4513,
      "ĠStudy": 4514,
      "Ġmal": 4515,
      "Ġrare": 4516,
      "Ġequivalent": 4517,
      "Ġminimize": 4518,
      "ĠVariational": 4519,
      "Ġconnections": 4520,
      "inant": 4521,
      "ĠPo": 4522,
      ";,": 4523,
      "nos": 4524,
      "Ġplays": 4525,
      "astroph": 4526,
      "Ġexhibits": 4527,
      "Ġlandsc": 4528,
      "Ġstra": 4529,
      "aps": 4530,
      "ĠLeveraging": 4531,
      "Ġcult": 4532,
      "ĠEns": 4533,
      "ĠMultilingual": 4534,
      "ronic": 4535,
      "cri": 4536,
      "ĠThey": 4537,
      "fect": 4538,
      "Ġalmost": 4539,
      "Ġpartition": 4540,
      "Ġexpressive": 4541,
      "temporal": 4542,
      "finite": 4543,
      "ĠInspired": 4544,
      "Ġhere": 4545,
      "Ġcontribute": 4546,
      "Ġchem": 4547,
      "Ġadding": 4548,
      "igned": 4549,
      "Ġdescription": 4550,
      "Ġ``": 4551,
      "Ġdisentang": 4552,
      "Ġsituations": 4553,
      "Ġdigital": 4554,
      "ratic": 4555,
      "Ġproduction": 4556,
      "Ġparticipants": 4557,
      "Ġneurons": 4558,
      "Ġregard": 4559,
      "Ġmob": 4560,
      "Ġtransformers": 4561,
      "Ġrational": 4562,
      "Ġhistory": 4563,
      "uned": 4564,
      "dis": 4565,
      "Ġopin": 4566,
      "Ġbiased": 4567,
      "ĠMethods": 4568,
      "ĠVer": 4569,
      "ĠInteg": 4570,
      "Ġmachines": 4571,
      "Ġstages": 4572,
      "Ġinitialization": 4573,
      "Ġhierarch": 4574,
      "Ġclear": 4575,
      "Ġdatabase": 4576,
      "Ġaugmented": 4577,
      "Ġbiomedical": 4578,
      "Ġutilized": 4579,
      "SO": 4580,
      "Ġpool": 4581,
      "Ġprotocol": 4582,
      "Ġbudget": 4583,
      "Ġmessage": 4584,
      "Ġshare": 4585,
      "Ġindustrial": 4586,
      "Ġconsisting": 4587,
      "Ġmove": 4588,
      "curate": 4589,
      "La": 4590,
      "ĠEnc": 4591,
      "ĠCan": 4592,
      "Ġmobile": 4593,
      "Ġchoices": 4594,
      "Ġcharacterize": 4595,
      "Ġiteration": 4596,
      "ĠRAG": 4597,
      "Ġoutcome": 4598,
      "Ġrepresents": 4599,
      "Ġexpos": 4600,
      "Ġbus": 4601,
      "ĠArchitect": 4602,
      "Ġrecall": 4603,
      "Co": 4604,
      "Ġactivity": 4605,
      "irt": 4606,
      "Ġfit": 4607,
      "Ġmaximize": 4608,
      "ĠSelection": 4609,
      "ew": 4610,
      "Ġexpan": 4611,
      "jects": 4612,
      "Ġpartially": 4613,
      "Ġcount": 4614,
      "ĠLatent": 4615,
      "Ġmeasurements": 4616,
      "SD": 4617,
      "Ġfailure": 4618,
      "GE": 4619,
      "Ġfav": 4620,
      "Ġdecentralized": 4621,
      "Ġvan": 4622,
      "Ġrelational": 4623,
      "Ġmajority": 4624,
      "relevant": 4625,
      "Ġvis": 4626,
      "Ġedges": 4627,
      "Th": 4628,
      "Ġinteresting": 4629,
      "Ġpriori": 4630,
      "ocument": 4631,
      "Ġsal": 4632,
      "Ġfiltering": 4633,
      "set": 4634,
      "ĠConvers": 4635,
      "Ġcurrently": 4636,
      "ĠEr": 4637,
      "Ġlightweight": 4638,
      "vity": 4639,
      "Ġproduced": 4640,
      "ĠLMs": 4641,
      "Ġscoring": 4642,
      "let": 4643,
      "sense": 4644,
      "Ġratio": 4645,
      "Ġindustry": 4646,
      "Ġmodular": 4647,
      "ares": 4648,
      "ody": 4649,
      "ĠReal": 4650,
      "une": 4651,
      "astrophic": 4652,
      "ifications": 4653,
      "erman": 4654,
      "Ġcomprehension": 4655,
      "Ġlosses": 4656,
      "Ġcommunic": 4657,
      "Ġreviews": 4658,
      "Ġcooper": 4659,
      "Ġcostly": 4660,
      "ĠRegression": 4661,
      "ĠNotably": 4662,
      "esides": 4663,
      "Ġresolution": 4664,
      "ĠPO": 4665,
      "Ġhyperparameters": 4666,
      "Ġfrequently": 4667,
      "Ġautoencoder": 4668,
      "Ġestimator": 4669,
      "ĠEvaluating": 4670,
      "Ġdemonstrations": 4671,
      "Ġminimization": 4672,
      "part": 4673,
      "Ġfuzzy": 4674,
      "Ġbehind": 4675,
      "policy": 4676,
      "onic": 4677,
      "Ġguidance": 4678,
      "prop": 4679,
      "ourced": 4680,
      "Ġembedded": 4681,
      "ĠDialogue": 4682,
      "St": 4683,
      "Ġclean": 4684,
      "Ġsmart": 4685,
      "Ġmodality": 4686,
      "ĠCP": 4687,
      "Ġsolvers": 4688,
      "Ġlatter": 4689,
      "RM": 4690,
      "Ġsummary": 4691,
      "ensitive": 4692,
      "Ġcoupl": 4693,
      "ĠUncertain": 4694,
      "Ch": 4695,
      "alse": 4696,
      "ĠFast": 4697,
      "tivated": 4698,
      "Ġvariation": 4699,
      "inations": 4700,
      "Ġrelying": 4701,
      "Ġreading": 4702,
      "Ġqualitative": 4703,
      "ĠTraditional": 4704,
      "Ġinvolve": 4705,
      "Ġwhy": 4706,
      "Ġgover": 4707,
      "LEU": 4708,
      "Ġclassify": 4709,
      "SV": 4710,
      "ĠLM": 4711,
      "Ġperturbation": 4712,
      "Ġpractition": 4713,
      "ĠAD": 4714,
      "network": 4715,
      "atures": 4716,
      "Ġproven": 4717,
      "oms": 4718,
      "Ġexplainable": 4719,
      "ĠForecasting": 4720,
      "Ġcombinatorial": 4721,
      "Ġexponential": 4722,
      "olve": 4723,
      "Ġseparate": 4724,
      "Ġneuro": 4725,
      "Ġconversations": 4726,
      "ifies": 4727,
      "ashion": 4728,
      "Ġdone": 4729,
      "Ġitems": 4730,
      "Ġquantum": 4731,
      "sim": 4732,
      "reement": 4733,
      "ricul": 4734,
      "Ġget": 4735,
      "Ġ15": 4736,
      "Ġconsiderable": 4737,
      "EM": 4738,
      "inate": 4739,
      "Ġlist": 4740,
      "Ġdom": 4741,
      "Ġded": 4742,
      "irectional": 4743,
      "RC": 4744,
      "mpto": 4745,
      "Ġextremely": 4746,
      "Ġlife": 4747,
      "VAE": 4748,
      "Ġconstit": 4749,
      "Ġlimiting": 4750,
      "Ġavailability": 4751,
      "ips": 4752,
      "Ġcompletion": 4753,
      "ĠEu": 4754,
      "used": 4755,
      "ĠBl": 4756,
      "Ġcodes": 4757,
      "arity": 4758,
      "Ġsupports": 4759,
      "information": 4760,
      "orough": 4761,
      "ributed": 4762,
      "Ġconnected": 4763,
      "Ġexploiting": 4764,
      "Ġdiction": 4765,
      "Ġrefin": 4766,
      "Ġvast": 4767,
      "xic": 4768,
      "Ġencounter": 4769,
      "ĠPerform": 4770,
      "Ġinvestigates": 4771,
      "ĠAttack": 4772,
      "rative": 4773,
      "Ġinterval": 4774,
      "stein": 4775,
      "Ġservice": 4776,
      "Ġconstructing": 4777,
      "ready": 4778,
      "assing": 4779,
      "Ġontology": 4780,
      "limin": 4781,
      "Ġdeliver": 4782,
      "ĠSocial": 4783,
      "gues": 4784,
      "Ġworkflow": 4785,
      "Ġminimum": 4786,
      "embles": 4787,
      "Ġquad": 4788,
      "ocks": 4789,
      "arp": 4790,
      "Ġchat": 4791,
      "mit": 4792,
      "rees": 4793,
      "model": 4794,
      "ĠWeb": 4795,
      "ĠPI": 4796,
      "ĠEstimation": 4797,
      "oting": 4798,
      "Ġcarefully": 4799,
      "Ex": 4800,
      "pha": 4801,
      "Ġdescribes": 4802,
      "Ġpaths": 4803,
      "Ġpenal": 4804,
      "Ġservices": 4805,
      "CD": 4806,
      "polation": 4807,
      "active": 4808,
      "Ġstudents": 4809,
      "cre": 4810,
      "Ġgreater": 4811,
      "Ġgained": 4812,
      "ustif": 4813,
      "ume": 4814,
      "Ġplace": 4815,
      "raft": 4816,
      "cor": 4817,
      "ĠInd": 4818,
      "orization": 4819,
      "mission": 4820,
      "ĠComb": 4821,
      "ĠTwo": 4822,
      "Ġenough": 4823,
      "ĠLocal": 4824,
      "ĠChallen": 4825,
      "atching": 4826,
      "Ġgrounded": 4827,
      "Ġnormalization": 4828,
      "ĠGe": 4829,
      "Ġpapers": 4830,
      "Ġ100": 4831,
      "Ġradi": 4832,
      "Ġsqu": 4833,
      "osp": 4834,
      "ĠDesign": 4835,
      "Ġanalog": 4836,
      "arest": 4837,
      "isk": 4838,
      "erv": 4839,
      "ĠDo": 4840,
      "Ġ+": 4841,
      "pectives": 4842,
      "Ġthorough": 4843,
      "Ġwhole": 4844,
      "Ġmutual": 4845,
      "Ġacquisition": 4846,
      "Ġcontrolled": 4847,
      "Ġmethodologies": 4848,
      "Ġmultivariate": 4849,
      "ĠKernel": 4850,
      "Ġadoption": 4851,
      "atter": 4852,
      "Ġfacts": 4853,
      "language": 4854,
      "Ġcop": 4855,
      "la": 4856,
      "ĠRNN": 4857,
      "Ġkernels": 4858,
      "constrained": 4859,
      "ĠHealth": 4860,
      "Ġreports": 4861,
      "Ġrelax": 4862,
      "Ġprincipled": 4863,
      "Ġvocabulary": 4864,
      "ession": 4865,
      "Ġattract": 4866,
      "ĠMNIST": 4867,
      "Ġcomplic": 4868,
      "Ġsole": 4869,
      "Ġreconstruct": 4870,
      "CI": 4871,
      "Ġgran": 4872,
      "ĠDL": 4873,
      "aboration": 4874,
      "ĠVisual": 4875,
      "acc": 4876,
      "ery": 4877,
      "epth": 4878,
      "Ġequation": 4879,
      "Ġgreatly": 4880,
      "eper": 4881,
      "Ġadopted": 4882,
      "ĠCarlo": 4883,
      "only": 4884,
      "Ġfall": 4885,
      "Ġbottleneck": 4886,
      "Ġtaking": 4887,
      "acle": 4888,
      "Ġestimated": 4889,
      "Ġpractitioners": 4890,
      "ogues": 4891,
      "idirectional": 4892,
      "Ġattempt": 4893,
      "ĠInstead": 4894,
      "oising": 4895,
      "Ġidentifies": 4896,
      "dit": 4897,
      "door": 4898,
      "ken": 4899,
      "Ġkeep": 4900,
      "Ġtargeted": 4901,
      "ĠAutomated": 4902,
      "Ġadapting": 4903,
      "Ġnow": 4904,
      "Ġdivergence": 4905,
      "Ġshortc": 4906,
      "Ġimit": 4907,
      "ĠLlama": 4908,
      "vial": 4909,
      "Ġenvironmental": 4910,
      "ĠDue": 4911,
      "ĠSurvey": 4912,
      "Ġdimensional": 4913,
      "centric": 4914,
      "offs": 4915,
      "100": 4916,
      "ulating": 4917,
      "oretic": 4918,
      "ĠNER": 4919,
      "Ġtwe": 4920,
      "Ġtrustworth": 4921,
      "Ġlab": 4922,
      "ED": 4923,
      "Ġiteratively": 4924,
      "Ġactual": 4925,
      "Ġrapidly": 4926,
      "uge": 4927,
      "Ġmicro": 4928,
      "atically": 4929,
      "ĠSummar": 4930,
      "Ġnor": 4931,
      "Ġadopt": 4932,
      "ĠAutoenc": 4933,
      "ĠSampling": 4934,
      "ĠReLU": 4935,
      "Ġexploring": 4936,
      "ĠSaf": 4937,
      "imate": 4938,
      "ĠMinim": 4939,
      "isons": 4940,
      "Ġspeedup": 4941,
      "ĠPhys": 4942,
      "min": 4943,
      "icious": 4944,
      "Ġtopology": 4945,
      "Ġviol": 4946,
      "Ġunit": 4947,
      "Ġideas": 4948,
      "Ġalready": 4949,
      "BO": 4950,
      "Ġextent": 4951,
      "ĠSentiment": 4952,
      "ĠEmbeddings": 4953,
      "ĠImageNet": 4954,
      "Ġintent": 4955,
      "Ġinvestigation": 4956,
      "ĠRegular": 4957,
      "Ġecon": 4958,
      "ĠBLEU": 4959,
      "Ġunlearning": 4960,
      "Ġgrammar": 4961,
      "Ġpublish": 4962,
      "Ġdefense": 4963,
      "Ġspoken": 4964,
      "ĠProbabilistic": 4965,
      "Ġcomplementary": 4966,
      "rases": 4967,
      "Ġimbalance": 4968,
      "regular": 4969,
      "ĠTr": 4970,
      "Ġexpressions": 4971,
      "ĠUncertainty": 4972,
      "ĠActive": 4973,
      "Ġvalidated": 4974,
      "utes": 4975,
      "ĠSch": 4976,
      "ulative": 4977,
      "ident": 4978,
      "elled": 4979,
      "Ġaligned": 4980,
      "Ġstrongly": 4981,
      "lear": 4982,
      "Ġbiological": 4983,
      "Ġgives": 4984,
      "Ġdiscriminative": 4985,
      "Ġpairwise": 4986,
      "Ġlandscape": 4987,
      "thon": 4988,
      "chronous": 4989,
      "orage": 4990,
      "Ġassessing": 4991,
      "ameter": 4992,
      "Ġcomputed": 4993,
      "Ġstrengths": 4994,
      "MD": 4995,
      "mod": 4996,
      "SI": 4997,
      "Ġbig": 4998,
      "Ġresidual": 4999,
      "Ġquickly": 5000,
      "Ġhinder": 5001,
      "Se": 5002,
      "ĠPr": 5003,
      "Ġhead": 5004,
      "ĠApproxim": 5005,
      "ĠTech": 5006,
      "Ġste": 5007,
      "Ġunf": 5008,
      "asc": 5009,
      "Ġphenomena": 5010,
      "Ġtranscrip": 5011,
      "risingly": 5012,
      "ĠBesides": 5013,
      "Ġgeometry": 5014,
      "urban": 5015,
      "Ġdesigns": 5016,
      "valence": 5017,
      "Ġsolely": 5018,
      "asser": 5019,
      "ĠSpati": 5020,
      "ĠGeneralization": 5021,
      "Ġcatastrophic": 5022,
      "Ġcommonsense": 5023,
      "rum": 5024,
      "Ġcrow": 5025,
      "Ġmillion": 5026,
      "entence": 5027,
      "Ġwriting": 5028,
      "Ġindependently": 5029,
      "Ġside": 5030,
      "ull": 5031,
      "Ġrecords": 5032,
      "ĠOptimal": 5033,
      "reedy": 5034,
      "Ġdistributional": 5035,
      "Ġlibrary": 5036,
      "Ġdifferentiable": 5037,
      "Ġmassive": 5038,
      "Ġled": 5039,
      "Ġtrig": 5040,
      "202": 5041,
      "aken": 5042,
      "MP": 5043,
      "ĠTheory": 5044,
      "Ġstar": 5045,
      "ĠEmo": 5046,
      "ĠBand": 5047,
      "ET": 5048,
      "Ġnu": 5049,
      "Ġextends": 5050,
      "Ġcomprom": 5051,
      "Ġurban": 5052,
      "rated": 5053,
      "ĠSimp": 5054,
      "Ġ19": 5055,
      "201": 5056,
      "Ġscr": 5057,
      "Ġaccomp": 5058,
      "ĠPrior": 5059,
      "Ġallocation": 5060,
      "Ġbusiness": 5061,
      "ĠRO": 5062,
      "Ġsolved": 5063,
      "Ġreleased": 5064,
      "Ġaccelerate": 5065,
      "ton": 5066,
      "Ġfalse": 5067,
      "Ġhope": 5068,
      "iders": 5069,
      "Ġfollowed": 5070,
      "Ġactivations": 5071,
      "MO": 5072,
      "Ġadapted": 5073,
      "olute": 5074,
      "Ġsensors": 5075,
      "Ġcaused": 5076,
      "ĠMotivated": 5077,
      "late": 5078,
      "Ġthreshold": 5079,
      "Ġinvestigated": 5080,
      "CNN": 5081,
      "guided": 5082,
      "Ġlonger": 5083,
      "day": 5084,
      "range": 5085,
      ";.": 5086,
      "Ġadaptively": 5087,
      "Ġperspectives": 5088,
      "Ġoverview": 5089,
      "Ġencomp": 5090,
      "Ġincomplete": 5091,
      "asserstein": 5092,
      "ĠMixture": 5093,
      "osen": 5094,
      "Ġvs": 5095,
      "ĠAlignment": 5096,
      "Ġreceived": 5097,
      "Ġbroader": 5098,
      "ĠLearn": 5099,
      "Ġclo": 5100,
      "ĠTheore": 5101,
      "Ġlocation": 5102,
      "Ġcoding": 5103,
      "ours": 5104,
      "riculum": 5105,
      "Ġmonol": 5106,
      "ĠExplan": 5107,
      "Ġdrift": 5108,
      "ĠSimilar": 5109,
      "Ġmental": 5110,
      "Ġmeasured": 5111,
      "ool": 5112,
      "Ġcompositional": 5113,
      "Ġconvolution": 5114,
      "ĠPerformance": 5115,
      "Ġfaithful": 5116,
      "Ġhate": 5117,
      "Ġmostly": 5118,
      "liminary": 5119,
      "Ġunstructured": 5120,
      "Ġconfigurations": 5121,
      "right": 5122,
      "ĠSign": 5123,
      "vities": 5124,
      "ĠMA": 5125,
      "Ġevolving": 5126,
      "esearch": 5127,
      "Ġworst": 5128,
      "ĠSpace": 5129,
      "Ġexists": 5130,
      "Ġhighest": 5131,
      "nostic": 5132,
      "}(": 5133,
      "Ġapproximately": 5134,
      "Ġsampled": 5135,
      "Ġrandomly": 5136,
      "tivities": 5137,
      "Ġperception": 5138,
      "Ġdeeper": 5139,
      "Ġprotein": 5140,
      "ĠPlanning": 5141,
      "Ġmarket": 5142,
      "Ġcauses": 5143,
      "Ġrecommendations": 5144,
      "ĠYet": 5145,
      "Ġinvariant": 5146,
      "Ġpure": 5147,
      "score": 5148,
      "Ġutterances": 5149,
      "ĠDistribution": 5150,
      "Ġ11": 5151,
      "ĠAgents": 5152,
      "Ġinsu": 5153,
      "ĠAfter": 5154,
      "ft": 5155,
      "ĠFlow": 5156,
      "Ġfeasible": 5157,
      "Ġcombinations": 5158,
      "adi": 5159,
      "Ġderiv": 5160,
      "rict": 5161,
      "Ġmeasuring": 5162,
      "Sp": 5163,
      "SGD": 5164,
      "Ġacad": 5165,
      "Ġdeb": 5166,
      "Ġgaps": 5167,
      "Ġproducing": 5168,
      "Ġsolver": 5169,
      "Ġmultipl": 5170,
      "Ġhold": 5171,
      "Ġtransformations": 5172,
      "Mo": 5173,
      "preserving": 5174,
      "Ġextensively": 5175,
      "Ġhence": 5176,
      "ressi": 5177,
      "Ġattain": 5178,
      "Ġdependence": 5179,
      "Ġorders": 5180,
      "oustic": 5181,
      "Ġbreak": 5182,
      "allow": 5183,
      "Ġdemands": 5184,
      "objective": 5185,
      "Ġfeasibility": 5186,
      "irtual": 5187,
      "Ġstorage": 5188,
      "Ġsupporting": 5189,
      "rafted": 5190,
      "ctive": 5191,
      "ĠPrompt": 5192,
      "Ġcontroll": 5193,
      "Ġcorrection": 5194,
      "CS": 5195,
      "Ġdevi": 5196,
      "Ġinnovative": 5197,
      "Ġopp": 5198,
      "Ġ50": 5199,
      "Ġjustif": 5200,
      "hop": 5201,
      "Ġranging": 5202,
      "ĠEnhancing": 5203,
      "Ġ{\\": 5204,
      "ones": 5205,
      "ĠAugment": 5206,
      "Ġmix": 5207,
      "ibri": 5208,
      "ĠResearch": 5209,
      "ĠBias": 5210,
      "Ġcyc": 5211,
      "Ġtopological": 5212,
      "Ġunre": 5213,
      "ecking": 5214,
      "Ġprojection": 5215,
      "Ġstart": 5216,
      "Ġsubgraph": 5217,
      "Ġanomalies": 5218,
      "Ġperm": 5219,
      "ĠShort": 5220,
      "Ġoperational": 5221,
      "cision": 5222,
      "Ġopportunities": 5223,
      "inter": 5224,
      "usive": 5225,
      "Ġmatches": 5226,
      "ĠIndi": 5227,
      "Ġsemantically": 5228,
      "ĠAlgorithms": 5229,
      "Ġtoo": 5230,
      "Ġdevice": 5231,
      "Ġcertif": 5232,
      "Ġconceptual": 5233,
      "Ġviews": 5234,
      "witter": 5235,
      "Ġclosely": 5236,
      "ĠContinual": 5237,
      "Ġcovering": 5238,
      "Ġincorrect": 5239,
      "ĠIntern": 5240,
      "Ġspur": 5241,
      "thog": 5242,
      "be": 5243,
      "Ġvulnerable": 5244,
      "son": 5245,
      "tice": 5246,
      "Ġcomes": 5247,
      "Ġheavi": 5248,
      "ĠMultiple": 5249,
      "Ġneighborhood": 5250,
      "Ġbeg": 5251,
      "Ġdiscrep": 5252,
      "illa": 5253,
      "ĠValu": 5254,
      "ĠFew": 5255,
      "iving": 5256,
      "Ġauto": 5257,
      "Ġutilization": 5258,
      "Ġboundary": 5259,
      "Ġnearly": 5260,
      "ĠLoRA": 5261,
      "Ġrobot": 5262,
      "pread": 5263,
      "Ġwritten": 5264,
      "Ġintervention": 5265,
      "Ġimbalanced": 5266,
      "Ġspeaker": 5267,
      "ested": 5268,
      "Ġpreserve": 5269,
      "oupl": 5270,
      "entic": 5271,
      "Ġreported": 5272,
      "phistic": 5273,
      "Ġcomparisons": 5274,
      "ĠNumer": 5275,
      "learn": 5276,
      "ype": 5277,
      "Ġtargets": 5278,
      "consuming": 5279,
      "ĠError": 5280,
      "vable": 5281,
      "Ġcategory": 5282,
      "Ġvehicle": 5283,
      "Ġvehicles": 5284,
      "ĠCL": 5285,
      "Ġsophistic": 5286,
      "Ġscheduling": 5287,
      "ĠRE": 5288,
      "cepti": 5289,
      "ĠChain": 5290,
      "prin": 5291,
      "ĠAgent": 5292,
      "Ġconsiders": 5293,
      "English": 5294,
      "Ġsimply": 5295,
      "Ġobtaining": 5296,
      "Ġwides": 5297,
      "Ġtaxonomy": 5298,
      "ĠAnom": 5299,
      "Ġ30": 5300,
      "Ġconclude": 5301,
      "CP": 5302,
      "ĠSemi": 5303,
      "ĠZero": 5304,
      "Ġwidespread": 5305,
      ")-": 5306,
      "GP": 5307,
      "tilde": 5308,
      "Ġaiming": 5309,
      "parts": 5310,
      "spec": 5311,
      "Ġsuboptimal": 5312,
      "Ġdescribed": 5313,
      "Su": 5314,
      "erature": 5315,
      "Ġchanging": 5316,
      "Ġsuggesting": 5317,
      "Ġthreat": 5318,
      "Ġheavily": 5319,
      "Ġroad": 5320,
      "Ġline": 5321,
      "geb": 5322,
      "Ġaccessible": 5323,
      "Ġoverlook": 5324,
      "Ġwindow": 5325,
      "Ġchosen": 5326,
      "Ġcheck": 5327,
      "ergy": 5328,
      "Ġmoment": 5329,
      "Shot": 5330,
      "Ġiterations": 5331,
      "Ġimplementations": 5332,
      "ĠDiscover": 5333,
      "oot": 5334,
      "fortun": 5335,
      "Ġindex": 5336,
      "Ġcreation": 5337,
      "az": 5338,
      "}\\": 5339,
      "Ġinterventions": 5340,
      "50": 5341,
      "ĠEd": 5342,
      "ctor": 5343,
      "Ġgeneralizability": 5344,
      "ilarities": 5345,
      "Ġbelieve": 5346,
      "ole": 5347,
      "inent": 5348,
      "Ġaccept": 5349,
      "Ġmarginal": 5350,
      "Ġinsufficient": 5351,
      "ĠMod": 5352,
      "ĠSP": 5353,
      "Ġsubspace": 5354,
      "Ġ13": 5355,
      "Ġbeneficial": 5356,
      "Ġquantification": 5357,
      "Ġcriterion": 5358,
      "ĠArchitecture": 5359,
      "illions": 5360,
      "while": 5361,
      "Ġtract": 5362,
      "Ġcomparative": 5363,
      "Ġcorrup": 5364,
      "Ġattribution": 5365,
      "Ġexperimentally": 5366,
      "Ġaddressed": 5367,
      "ĠCap": 5368,
      "Ġenrich": 5369,
      "Ġprocedures": 5370,
      "ĠGerman": 5371,
      "clide": 5372,
      "ĠVector": 5373,
      "Ġpoorly": 5374,
      "Ġprox": 5375,
      "Ġautoregressive": 5376,
      "Ġuncover": 5377,
      "Ġmotivated": 5378,
      "ĠDistillation": 5379,
      "Ġclaims": 5380,
      "Ġanalyzed": 5381,
      "depth": 5382,
      "Ġapplies": 5383,
      "clidean": 5384,
      "Ġepis": 5385,
      "propagation": 5386,
      "Pro": 5387,
      "elta": 5388,
      "Ġarguments": 5389,
      "informed": 5390,
      "ĠSet": 5391,
      "Ġregime": 5392,
      "Ġmitigating": 5393,
      "ll": 5394,
      "Ġinherently": 5395,
      "fortunately": 5396,
      "Ġfashion": 5397,
      "Ġconverge": 5398,
      "Ġcoherent": 5399,
      "Lo": 5400,
      "TE": 5401,
      "Ġharmful": 5402,
      "tail": 5403,
      "Ġmeasurement": 5404,
      "Ġcandidates": 5405,
      "Ġcloud": 5406,
      "lier": 5407,
      "ĠEEG": 5408,
      "Ġstraight": 5409,
      "theless": 5410,
      "ĠNext": 5411,
      "tune": 5412,
      "augmented": 5413,
      "Ġmode": 5414,
      "Ġreplace": 5415,
      "idth": 5416,
      "ĠProgramming": 5417,
      "Ġencoded": 5418,
      "Ġbran": 5419,
      "ĠTwitter": 5420,
      "cont": 5421,
      "Ġlearners": 5422,
      "Ġparametric": 5423,
      "Ġaid": 5424,
      "enced": 5425,
      "eyond": 5426,
      "ĠOverall": 5427,
      "ĠLogic": 5428,
      "orld": 5429,
      "Ġcompati": 5430,
      "Ġinvolved": 5431,
      "Ġweather": 5432,
      "Ġdesirable": 5433,
      "Ġasympto": 5434,
      "ĠBoth": 5435,
      "ĠEach": 5436,
      "Ġtrends": 5437,
      "Ġwhereas": 5438,
      "Ġfacilitates": 5439,
      "Ġmonolingual": 5440,
      "Ġproposing": 5441,
      "ĠConf": 5442,
      "Ġpossib": 5443,
      "itical": 5444,
      "atics": 5445,
      "ĠStructure": 5446,
      "Ġcollaboration": 5447,
      "ĠRobustness": 5448,
      "arcity": 5449,
      "apse": 5450,
      "Ġtranslations": 5451,
      "ĠColl": 5452,
      "oking": 5453,
      "theoretic": 5454,
      "Ġpack": 5455,
      "Ġvital": 5456,
      "Ġfinetuning": 5457,
      "Ġsus": 5458,
      "rammatical": 5459,
      "entioned": 5460,
      "Ġpric": 5461,
      "Ġinterface": 5462,
      "Ġfron": 5463,
      "Ġsophisticated": 5464,
      "Ġcircu": 5465,
      "parametric": 5466,
      "intensive": 5467,
      "deed": 5468,
      "Ġcorrespond": 5469,
      "ĠProblem": 5470,
      "Ġinv": 5471,
      "Ġstrict": 5472,
      "ditive": 5473,
      "Ġentail": 5474,
      "iable": 5475,
      "ĠPython": 5476,
      "Ġcounterparts": 5477,
      "ĠMedical": 5478,
      "Ġ16": 5479,
      "orecast": 5480,
      "DNNs": 5481,
      "ĠCT": 5482,
      "Ġplaus": 5483,
      "Ġdialogues": 5484,
      "Ġcompr": 5485,
      "Ġbehavioral": 5486,
      "ĠProcesses": 5487,
      "_{": 5488,
      "ĠComprehensive": 5489,
      "Ġuns": 5490,
      "ĠBack": 5491,
      "Ġdiscussed": 5492,
      "Ġexceed": 5493,
      "Ġprefer": 5494,
      "urrence": 5495,
      "otonic": 5496,
      "exp": 5497,
      "ĠAPI": 5498,
      "Ġrepe": 5499,
      "Ġrestricted": 5500,
      "ĠIs": 5501,
      "ĠNam": 5502,
      "ĠBeyond": 5503,
      "ĠWhat": 5504,
      "Ġscratch": 5505,
      "tise": 5506,
      "Ġlexic": 5507,
      "ĠCommun": 5508,
      "ĠInf": 5509,
      "Ġbenchmarking": 5510,
      "Ġserves": 5511,
      "amless": 5512,
      "ĠNMT": 5513,
      "Ġhallucinations": 5514,
      "BM": 5515,
      "frac": 5516,
      "Ġsimpler": 5517,
      "ĠExplainable": 5518,
      "under": 5519,
      "ĠSupport": 5520,
      "Ġgrowth": 5521,
      "Ġdelay": 5522,
      "sequent": 5523,
      "Ġabsolute": 5524,
      "ives": 5525,
      "Ġcoherence": 5526,
      "ĠPrivacy": 5527,
      "Ġisol": 5528,
      "ĠFour": 5529,
      "ĠLLa": 5530,
      "ĠCompar": 5531,
      "Ġlook": 5532,
      "Ġpredicts": 5533,
      "Ġpropor": 5534,
      "Ġrating": 5535,
      "Ġmodified": 5536,
      "Ġtransparency": 5537,
      "trans": 5538,
      "Ġcy": 5539,
      "ustain": 5540,
      "ley": 5541,
      "Ġattempts": 5542,
      "ilibri": 5543,
      "ĠConcept": 5544,
      "aily": 5545,
      "igen": 5546,
      "Ġfake": 5547,
      "mentally": 5548,
      "Ġnumbers": 5549,
      "Ġversati": 5550,
      "Ġdiagnostic": 5551,
      "group": 5552,
      "Ġcorrectness": 5553,
      "HF": 5554,
      "tasks": 5555,
      "Ġquadratic": 5556,
      "CM": 5557,
      "Ġretraining": 5558,
      "ipedia": 5559,
      "Ġethical": 5560,
      "PG": 5561,
      "Ġincremental": 5562,
      "Ġadaptability": 5563,
      "Ġgovern": 5564,
      "Ġpur": 5565,
      "ĠDire": 5566,
      "ĠHence": 5567,
      "Ġsurface": 5568,
      "Ġapproximations": 5569,
      "ĠFeed": 5570,
      "Ġclassic": 5571,
      "ache": 5572,
      "ĠHeterogen": 5573,
      "Ġscarcity": 5574,
      "requency": 5575,
      "Ġinfinite": 5576,
      "ularity": 5577,
      "Ġactivities": 5578,
      "Ġgeneralizes": 5579,
      "Ġpredictor": 5580,
      "Ġappear": 5581,
      "otemporal": 5582,
      "Ġtable": 5583,
      "Ġfram": 5584,
      "Ġemotional": 5585,
      "call": 5586,
      "words": 5587,
      "\\%$": 5588,
      "ĠSummarization": 5589,
      "AV": 5590,
      "RF": 5591,
      "aling": 5592,
      "comm": 5593,
      "Ġconcent": 5594,
      "istent": 5595,
      "Ġminor": 5596,
      "gt": 5597,
      "ĠWasserstein": 5598,
      "ĠSequence": 5599,
      "ought": 5600,
      "ollowing": 5601,
      "Ġshed": 5602,
      "chitz": 5603,
      "Ġrunning": 5604,
      "Ġdriven": 5605,
      "biased": 5606,
      "decoder": 5607,
      "Ġshap": 5608,
      "Ġblocks": 5609,
      "Ġvariability": 5610,
      "ĠAnomaly": 5611,
      "Ġimper": 5612,
      "Ġimpacts": 5613,
      "Ġunderstood": 5614,
      "ĠGen": 5615,
      "Boost": 5616,
      "Ġdictionary": 5617,
      "DS": 5618,
      "Ġinduced": 5619,
      "ĠSoft": 5620,
      "ĠConsequently": 5621,
      "Ġmembers": 5622,
      "ĠOper": 5623,
      "Ġclimate": 5624,
      "ĠStrateg": 5625,
      "Ġprovably": 5626,
      "sensitive": 5627,
      "uality": 5628,
      "els": 5629,
      "Ġcorrelated": 5630,
      "Ġbackb": 5631,
      "iii": 5632,
      "ek": 5633,
      "Ġexistence": 5634,
      "ĠMeas": 5635,
      "NL": 5636,
      "Ġbr": 5637,
      "Ġbandits": 5638,
      "Ġtw": 5639,
      "Ġcomputations": 5640,
      "ĠConstrain": 5641,
      "Ġvanilla": 5642,
      "Ġruntime": 5643,
      "Ġsuite": 5644,
      "Ġbackground": 5645,
      "Ġconclusion": 5646,
      "Ġexpressi": 5647,
      "EL": 5648,
      "ĠTensor": 5649,
      "Ġdealing": 5650,
      "gebra": 5651,
      "width": 5652,
      "Ġsatisfy": 5653,
      "int": 5654,
      "elines": 5655,
      "Ġsimilarities": 5656,
      "ipschitz": 5657,
      "ĠContextual": 5658,
      "ĠWikipedia": 5659,
      "Ġfavor": 5660,
      "annot": 5661,
      "Ġnewly": 5662,
      "oses": 5663,
      "Ġadvers": 5664,
      "ĠDistributed": 5665,
      "ĠSOTA": 5666,
      "tri": 5667,
      "iqu": 5668,
      "Ġpose": 5669,
      "Ġtrack": 5670,
      "Ġtracking": 5671,
      "DT": 5672,
      "ĠNever": 5673,
      "ĠVAE": 5674,
      "OR": 5675,
      "Ġseamless": 5676,
      "Ġask": 5677,
      "ounded": 5678,
      "ambigu": 5679,
      "Ġrise": 5680,
      "valued": 5681,
      "wide": 5682,
      "relation": 5683,
      "ometric": 5684,
      "performing": 5685,
      "Ġcustomer": 5686,
      "pr": 5687,
      "formal": 5688,
      "Ġcompan": 5689,
      "acing": 5690,
      "ĠWeight": 5691,
      "Ġablation": 5692,
      "Ġcharacterized": 5693,
      "ĠHybrid": 5694,
      "adap": 5695,
      "Ġquanti": 5696,
      "Ġhorizon": 5697,
      "turn": 5698,
      "Ġ=": 5699,
      "ĠUnfortunately": 5700,
      "Ġacoustic": 5701,
      "Ġdivid": 5702,
      "Ġreasons": 5703,
      "Ġindicating": 5704,
      "aive": 5705,
      "value": 5706,
      "Ġpopularity": 5707,
      "Ġspectrum": 5708,
      "Ġparadigms": 5709,
      "itively": 5710,
      "mpl": 5711,
      "ĠMed": 5712,
      "Ġleak": 5713,
      "Ġensures": 5714,
      "Ġcorrectly": 5715,
      "Ġalone": 5716,
      "Ġmaterials": 5717,
      "Ġencoders": 5718,
      "Ġaligning": 5719,
      "uter": 5720,
      "Ġpercent": 5721,
      "Ġupdating": 5722,
      "Ġloop": 5723,
      "Ġfacilitating": 5724,
      "Ġemotions": 5725,
      "Ġdetails": 5726,
      "Ġorigin": 5727,
      "havi": 5728,
      "Ġspurious": 5729,
      "Ġear": 5730,
      "Ġspan": 5731,
      "Ġgraphical": 5732,
      "ĠEnsemble": 5733,
      "ĠFunction": 5734,
      "Ġdetermining": 5735,
      "mer": 5736,
      "Ġchemical": 5737,
      "thogonal": 5738,
      "ĠNevertheless": 5739,
      "entions": 5740,
      "struct": 5741,
      "verti": 5742,
      "ĠExp": 5743,
      "Ġconverges": 5744,
      "Ġneglect": 5745,
      "ĠVision": 5746,
      "Ġsurpasses": 5747,
      "Ġauthors": 5748,
      "ĠMaxim": 5749,
      "ductive": 5750,
      "ĠTe": 5751,
      "Ġ14": 5752,
      "Ġkin": 5753,
      "ounds": 5754,
      "vation": 5755,
      "ĠPol": 5756,
      "ĠNP": 5757,
      "ented": 5758,
      "Ġabsence": 5759,
      "Ġdepending": 5760,
      "Ġmaximizing": 5761,
      "Ġtweets": 5762,
      "Ġtaken": 5763,
      "Ġpercept": 5764,
      "Ġadversari": 5765,
      "Ġversions": 5766,
      "ĠSever": 5767,
      "Ġalternatives": 5768,
      "RU": 5769,
      "Ġnotable": 5770,
      "Ġsuffers": 5771,
      "Ad": 5772,
      "Ġtight": 5773,
      "ĠImport": 5774,
      "Ġexperiences": 5775,
      "GCN": 5776,
      "ĠVi": 5777,
      "Ġpractices": 5778,
      "Ġdiscussion": 5779,
      "Ġexch": 5780,
      "essing": 5781,
      "Ġhierarchy": 5782,
      "lass": 5783,
      "Ġexpand": 5784,
      "Ġelement": 5785,
      "Ġlearnable": 5786,
      "Ġrequirement": 5787,
      "ilies": 5788,
      "Ġlocally": 5789,
      "condition": 5790,
      "ĠDifferential": 5791,
      "Ġimplicitly": 5792,
      "Ġproducts": 5793,
      "inks": 5794,
      "Ġunl": 5795,
      "ĠDescent": 5796,
      "Ġflows": 5797,
      "Ġpublished": 5798,
      "icated": 5799,
      "Ġexpertise": 5800,
      "Ġdependent": 5801,
      "Ġtemperature": 5802,
      "Ġunclear": 5803,
      "NER": 5804,
      "Ġcentralized": 5805,
      "Ġhar": 5806,
      "DD": 5807,
      "independent": 5808,
      "Ġexploits": 5809,
      "Ġsubsets": 5810,
      "Ġremaining": 5811,
      "Ġmalicious": 5812,
      "Ġcancer": 5813,
      "Ġboundaries": 5814,
      "ĠPhysics": 5815,
      "acro": 5816,
      "Ġpreliminary": 5817,
      "hanced": 5818,
      "means": 5819,
      "ĠMC": 5820,
      "ĠResNet": 5821,
      "BERTa": 5822,
      "Ġstudying": 5823,
      "ĠPersonal": 5824,
      "Ġanalytical": 5825,
      "Ġlocations": 5826,
      "Ġforecast": 5827,
      "Ġshallow": 5828,
      "Ġexpressed": 5829,
      "Ġmodeled": 5830,
      "ifier": 5831,
      "Ġstronger": 5832,
      "Ġrecovery": 5833,
      "ĠAugmentation": 5834,
      "ĠSem": 5835,
      "ensus": 5836,
      "Ġintric": 5837,
      "Ġpriors": 5838,
      "Ġnecessit": 5839,
      "Ġload": 5840,
      "ĠLoss": 5841,
      "ĠElect": 5842,
      "ĠGANs": 5843,
      "Supervised": 5844,
      "alk": 5845,
      "Ġspanning": 5846,
      "Ġboosting": 5847,
      "Augmented": 5848,
      "ĠEvent": 5849,
      "Ġkind": 5850,
      "Ġintuitive": 5851,
      "ĠConditional": 5852,
      "Ġchoose": 5853,
      "ufact": 5854,
      "rating": 5855,
      "Ġfill": 5856,
      "Ġhuge": 5857,
      "Ġcomplet": 5858,
      "purpose": 5859,
      "Ġpoison": 5860,
      "Ġtransportation": 5861,
      "Ġthous": 5862,
      "Ġassignment": 5863,
      "Ġbil": 5864,
      "Ġaimed": 5865,
      "ĠSpan": 5866,
      "Ġeducation": 5867,
      "Ġsignificance": 5868,
      "MF": 5869,
      "fe": 5870,
      "ologically": 5871,
      "Ġambigu": 5872,
      "ĠForest": 5873,
      "imes": 5874,
      "Ġstreaming": 5875,
      "Ġnavigation": 5876,
      "IS": 5877,
      "Ġbecoming": 5878,
      "Ġextreme": 5879,
      "ĠIoT": 5880,
      "Ġrouting": 5881,
      "Ġencourage": 5882,
      "Ġemb": 5883,
      "Learning": 5884,
      "ynchronous": 5885,
      "ielding": 5886,
      "Ġlargest": 5887,
      "ĠAbst": 5888,
      "ĠNN": 5889,
      "Ġseven": 5890,
      "Ġtagging": 5891,
      "Ġbring": 5892,
      "Ġguided": 5893,
      "ivot": 5894,
      "Ġdenoising": 5895,
      "Ġplans": 5896,
      "Ġcour": 5897,
      "ĠPredicting": 5898,
      "Ġshape": 5899,
      "Ġcontributes": 5900,
      "hoc": 5901,
      "Ġcomposed": 5902,
      "Ġprevalent": 5903,
      "Ġadvancing": 5904,
      "ibrated": 5905,
      "Ġsensing": 5906,
      "url": 5907,
      "Ġagreement": 5908,
      "ĠReward": 5909,
      "Ġplayers": 5910,
      "enses": 5911,
      "Ġcompetition": 5912,
      "Ġprofil": 5913,
      "Ġstraightforward": 5914,
      "och": 5915,
      "Ġcum": 5916,
      "actions": 5917,
      "Ġparaph": 5918,
      "NA": 5919,
      "Ġarise": 5920,
      "Ġrecur": 5921,
      "Ġsubsequent": 5922,
      "lates": 5923,
      "Ġoperating": 5924,
      "Ġworking": 5925,
      "Ġadded": 5926,
      "Ġreasonable": 5927,
      "Ġhallucination": 5928,
      "Ġcommunities": 5929,
      "ray": 5930,
      "Ġadequ": 5931,
      "arri": 5932,
      "Ġclin": 5933,
      "entity": 5934,
      "ulties": 5935,
      "Ġoperate": 5936,
      "icine": 5937,
      "Ġfault": 5938,
      "Ġmanipulation": 5939,
      "Ġfraction": 5940,
      "Ġtoxic": 5941,
      "Ġextending": 5942,
      "Ġoptimality": 5943,
      "Ġright": 5944,
      "Ġcultural": 5945,
      "Ġdefinitions": 5946,
      "ĠCur": 5947,
      "ĠTasks": 5948,
      "lt": 5949,
      "ishing": 5950,
      "Ġimitation": 5951,
      "areness": 5952,
      "Ġlabor": 5953,
      "Ġfamilies": 5954,
      "Ġax": 5955,
      "Ġconfiguration": 5956,
      "posit": 5957,
      "ĠRelation": 5958,
      "izable": 5959,
      "ĠFr": 5960,
      "Ġcontinu": 5961,
      "Ġgradu": 5962,
      "using": 5963,
      "ĠCase": 5964,
      "ĠSk": 5965,
      "Ġinterpre": 5966,
      "Ġvirtual": 5967,
      "Ġpipelines": 5968,
      "effici": 5969,
      "Ġoutliers": 5970,
      "ĠStruct": 5971,
      "ĠIdentification": 5972,
      "iny": 5973,
      "Ġdecrease": 5974,
      "ĠNamed": 5975,
      "trivial": 5976,
      "Ġdistances": 5977,
      "ĠEnviron": 5978,
      "Ġhypotheses": 5979,
      "Ġalthough": 5980,
      "inated": 5981,
      "ush": 5982,
      "ĠAL": 5983,
      "Ġdiseases": 5984,
      "SR": 5985,
      "ĠRA": 5986,
      "urring": 5987,
      "ĠMLP": 5988,
      "uff": 5989,
      "ĠNL": 5990,
      "andard": 5991,
      "Ġestimators": 5992,
      "Ġacademic": 5993,
      "ĠCounter": 5994,
      "ĠBet": 5995,
      "Ġarm": 5996,
      "Ġdifficulties": 5997,
      "ĠInterpretable": 5998,
      "Gu": 5999,
      "jo": 6000,
      "Ġcome": 6001,
      "ĠGCN": 6002,
      "Ġvalidity": 6003,
      "Tuning": 6004,
      "roduct": 6005,
      "ĠFairness": 6006,
      "ĠSupervised": 6007,
      "Ġair": 6008,
      "Ġemergence": 6009,
      "ortion": 6010,
      "Ġseparately": 6011,
      "ireless": 6012,
      "Ġpropag": 6013,
      "ĠCoT": 6014,
      "Ġpossibility": 6015,
      "Ġbur": 6016,
      "Ġpreprocessing": 6017,
      "Ġbox": 6018,
      "iguous": 6019,
      "avy": 6020,
      "Ġfactorization": 6021,
      "Ġevaluates": 6022,
      "Ġroot": 6023,
      "Ġutterance": 6024,
      "isely": 6025,
      "ractical": 6026,
      "areto": 6027,
      "Ġtheorem": 6028,
      "inning": 6029,
      "Ġediting": 6030,
      "Ġrevealed": 6031,
      "ĠExploring": 6032,
      "II": 6033,
      "ĠCal": 6034,
      "ĠNAS": 6035,
      "Ġmasked": 6036,
      "ini": 6037,
      "Ġbackdoor": 6038,
      "Ġtrains": 6039,
      "Ġoracle": 6040,
      "vival": 6041,
      "ĠEnd": 6042,
      "Ġvisualization": 6043,
      "SQL": 6044,
      "ĠInternet": 6045,
      "SN": 6046,
      "Ġsegments": 6047,
      "Ġmotion": 6048,
      "Ġmitigation": 6049,
      "Ġwater": 6050,
      "Ġlif": 6051,
      "Ġproxim": 6052,
      "Ġabstraction": 6053,
      "Ġforecas": 6054,
      "Ġ200": 6055,
      "Ġmodes": 6056,
      "Ġvolume": 6057,
      "Ġupdated": 6058,
      "Ġspatio": 6059,
      "ĠDRL": 6060,
      "Time": 6061,
      "Ġholds": 6062,
      "speech": 6063,
      "Ġsyntax": 6064,
      "ĠHeterogeneous": 6065,
      "ĠAdv": 6066,
      "Ġpron": 6067,
      "ĠClinical": 6068,
      "Ġcontinuously": 6069,
      "ĠMath": 6070,
      "Ġbalanced": 6071,
      "Res": 6072,
      "RNN": 6073,
      "Ġmoder": 6074,
      "Ġensembles": 6075,
      "Ġprofession": 6076,
      "Ġcomplicated": 6077,
      "MR": 6078,
      "arce": 6079,
      "Ġtrainable": 6080,
      "Ġindicates": 6081,
      "Ġattracted": 6082,
      "Ġcommer": 6083,
      "Ġmolecules": 6084,
      "rast": 6085,
      "Ġframe": 6086,
      "ĠPareto": 6087,
      "Ġcompletely": 6088,
      "IL": 6089,
      "Ġgreedy": 6090,
      "Ġpivot": 6091,
      "Ġautoencoders": 6092,
      "ĠLast": 6093,
      "Ġsufficiently": 6094,
      "Ġsometimes": 6095,
      "odic": 6096,
      "ĠReview": 6097,
      "Ġestablishing": 6098,
      "Ġtheories": 6099,
      "Ġlies": 6100,
      "ĠLipschitz": 6101,
      "ĠNormal": 6102,
      "ĠPret": 6103,
      "Ġord": 6104,
      "Ġsituation": 6105,
      "IC": 6106,
      "unctions": 6107,
      "ĠAmong": 6108,
      "ĠSeveral": 6109,
      "Flow": 6110,
      "Ġconstructs": 6111,
      "ĠKey": 6112,
      "Ġsimulate": 6113,
      "ĠApplications": 6114,
      "onym": 6115,
      "Qu": 6116,
      "ĠMO": 6117,
      "critical": 6118,
      "ots": 6119,
      "Ġtrend": 6120,
      "ĠEHR": 6121,
      "ĠPost": 6122,
      "Ġequal": 6123,
      "ĠProblems": 6124,
      "MDPs": 6125,
      "Ġiden": 6126,
      "armed": 6127,
      "PC": 6128,
      "Ġgrounding": 6129,
      "EC": 6130,
      "Ġoutperformed": 6131,
      "ĠIter": 6132,
      "aced": 6133,
      "ively": 6134,
      "ĠGlobal": 6135,
      "Ġyielding": 6136,
      "Ġsound": 6137,
      "antly": 6138,
      "encing": 6139,
      "Ġprominent": 6140,
      "Rank": 6141,
      "ĠRisk": 6142,
      "ĠCorpus": 6143,
      "ĠSentence": 6144,
      "Ġrecord": 6145,
      "Ġbalancing": 6146,
      "Ġspeakers": 6147,
      "bb": 6148,
      "ches": 6149,
      "Ġsevere": 6150,
      "Ġsustain": 6151,
      "Ġadversary": 6152,
      "ĠStructured": 6153,
      "Ġfilters": 6154,
      "Ġexcl": 6155,
      "Ġpredefined": 6156,
      "Ġtractable": 6157,
      "Ġretrieved": 6158,
      "Ġrevealing": 6159,
      "ĠValue": 6160,
      "Ġcoupled": 6161,
      "Ġdaily": 6162,
      "smooth": 6163,
      "olding": 6164,
      "Ġreliance": 6165,
      "Ġconj": 6166,
      "Ġscope": 6167,
      "Ġdirected": 6168,
      "ĠNumerical": 6169,
      "with": 6170,
      "ĠShap": 6171,
      "ĠContinuous": 6172,
      "stra": 6173,
      "Ġaccum": 6174,
      "Ġclassifying": 6175,
      "ĠAccurate": 6176,
      "Ġrefinement": 6177,
      "Ġinters": 6178,
      "Ġstack": 6179,
      "amples": 6180,
      "ĠXAI": 6181,
      "ĠEuclidean": 6182,
      "Ġcut": 6183,
      "Ġperp": 6184,
      "licity": 6185,
      "Ġactor": 6186,
      "Ġtransitions": 6187,
      "ĠParameter": 6188,
      "Ġeight": 6189,
      "ĠBut": 6190,
      "Ġdiag": 6191,
      "ĠTool": 6192,
      "ĠMetric": 6193,
      "ault": 6194,
      "Ġselects": 6195,
      "ĠEffective": 6196,
      "Ġdropout": 6197,
      "ĠDuring": 6198,
      "Ġintra": 6199,
      "Ġguidelines": 6200,
      "Ġcomprising": 6201,
      "aracters": 6202,
      "effective": 6203,
      "Ġforest": 6204,
      "Ġthroughout": 6205,
      "16": 6206,
      "neg": 6207,
      "Ġguaranteed": 6208,
      "ĠBehavi": 6209,
      "ĠFourier": 6210,
      "ĠSome": 6211,
      "Ġpolitical": 6212,
      "ĠLLaMA": 6213,
      "Ġtransferability": 6214,
      "normal": 6215,
      "Ġperfect": 6216,
      "Ġadvancement": 6217,
      "Ġpassing": 6218,
      "Ġoptimizes": 6219,
      "ĠFeedback": 6220,
      "ren": 6221,
      "Ġpredictors": 6222,
      "sts": 6223,
      "valid": 6224,
      "Ġconsideration": 6225,
      "Ġcaptured": 6226,
      "ĠSH": 6227,
      "istency": 6228,
      "Ġreplay": 6229,
      "Ġopinion": 6230,
      "ĠFound": 6231,
      "empl": 6232,
      "conn": 6233,
      "apl": 6234,
      "Ġposts": 6235,
      "Ġfaces": 6236,
      "Ġmodifications": 6237,
      "Ġexpress": 6238,
      "Ġposs": 6239,
      "ubiqu": 6240,
      "Ġslight": 6241,
      "Ġscre": 6242,
      "Ġcurriculum": 6243,
      "Ġneighbors": 6244,
      "Ġubiqu": 6245,
      "Ġenjo": 6246,
      "Ġimputation": 6247,
      "ĠBoost": 6248,
      "Ġredundant": 6249,
      "Ġroles": 6250,
      "lectively": 6251,
      "Ġwidth": 6252,
      "anking": 6253,
      "ilibrium": 6254,
      "elves": 6255,
      "Ġprohib": 6256,
      "Ġexcess": 6257,
      "Ġfails": 6258,
      "ASR": 6259,
      "Ġaggregate": 6260,
      "Ġdrawn": 6261,
      "ĠJoint": 6262,
      "Ġtermed": 6263,
      "Ġstarting": 6264,
      "ĠCNNs": 6265,
      "Ġbases": 6266,
      "Ġhelpful": 6267,
      "uracies": 6268,
      "Ġspecified": 6269,
      "Ġrandomized": 6270,
      "Ġreliably": 6271,
      "Ġcarri": 6272,
      "SG": 6273,
      "Ġlot": 6274,
      "stationary": 6275,
      "ognitive": 6276,
      "ĠNews": 6277,
      "ĠDem": 6278,
      "ount": 6279,
      "vents": 6280,
      "ĠTest": 6281,
      "Ġcollapse": 6282,
      "ĠOffline": 6283,
      "ĠAttacks": 6284,
      "overs": 6285,
      "ĠSo": 6286,
      "Ġincur": 6287,
      "Ġprone": 6288,
      "ĠPreference": 6289,
      "Ġexcell": 6290,
      "Ġproxy": 6291,
      "faces": 6292,
      "Ġ40": 6293,
      "Ġarchitectural": 6294,
      "ithme": 6295,
      "ography": 6296,
      "ĠMeanwhile": 6297,
      "onical": 6298,
      "iece": 6299,
      "ceptible": 6300,
      "Ġkinds": 6301,
      "iability": 6302,
      "ĠPLMs": 6303,
      "ĠEnergy": 6304,
      "Ġrefine": 6305,
      "ĠAdam": 6306,
      "Ġextensions": 6307,
      "ĠDecomp": 6308,
      "Ġshowcase": 6309,
      "Ġmessages": 6310,
      "called": 6311,
      "Ġlinks": 6312,
      "ouse": 6313,
      "Ġmobility": 6314,
      "ĠSVM": 6315,
      "Ġsplit": 6316,
      "Ġhours": 6317,
      "Ġimpl": 6318,
      "Ġintroduction": 6319,
      "Ġdiscre": 6320,
      "Ġcharacterization": 6321,
      "Ġcategorical": 6322,
      "ĠScalable": 6323,
      "eas": 6324,
      "ĠSing": 6325,
      "Ġstatistically": 6326,
      "Ġaffects": 6327,
      "Ġmerging": 6328,
      "Ġage": 6329,
      "Ġdram": 6330,
      "itable": 6331,
      "Ġheads": 6332,
      "Ġfidelity": 6333,
      "ĠPower": 6334,
      "Ġdiscriminator": 6335,
      "ĠEmpirically": 6336,
      "life": 6337,
      "Ġimplementing": 6338,
      "ĠExploration": 6339,
      "Ġdiscrepancy": 6340,
      "CB": 6341,
      "alpha": 6342,
      "Ġreposit": 6343,
      "licit": 6344,
      "ades": 6345,
      "Ġimaging": 6346,
      "ismatch": 6347,
      "Ġine": 6348,
      "Ġfost": 6349,
      "ĠAUC": 6350,
      "dominant": 6351,
      "Ġreferred": 6352,
      "Ġ18": 6353,
      "ĠAlso": 6354,
      "ĠTraffic": 6355,
      "DNN": 6356,
      "RS": 6357,
      "ĠPAC": 6358,
      "Ġplann": 6359,
      "Ġremoving": 6360,
      "represent": 6361,
      "arith": 6362,
      "Ġstory": 6363,
      "Ġartif": 6364,
      "Ġseek": 6365,
      "mbol": 6366,
      "Ġtravel": 6367,
      "erce": 6368,
      "itous": 6369,
      "Ġindependence": 6370,
      "ĠDocument": 6371,
      "Ġeasier": 6372,
      "Ġrepeated": 6373,
      "ES": 6374,
      "Text": 6375,
      "lay": 6376,
      "yle": 6377,
      "Ġsat": 6378,
      "Ġbit": 6379,
      "Ġmeet": 6380,
      "rade": 6381,
      "ĠModer": 6382,
      "Ġpromote": 6383,
      "Ġweakness": 6384,
      "ĠMDPs": 6385,
      "ĠDiscovery": 6386,
      "Ġproved": 6387,
      "olved": 6388,
      "Ġcurated": 6389,
      "Ġavoiding": 6390,
      "ĠDifferent": 6391,
      "Ġpros": 6392,
      "mic": 6393,
      "ctu": 6394,
      "Ġinfrast": 6395,
      "ufacturing": 6396,
      "Ġcompet": 6397,
      "amese": 6398,
      "istemic": 6399,
      "ĠStatis": 6400,
      "Ġdeploying": 6401,
      "Ġexcellent": 6402,
      "eme": 6403,
      "ĠGroup": 6404,
      "Ġintricate": 6405,
      "conf": 6406,
      "Ġformulated": 6407,
      "rection": 6408,
      "}{": 6409,
      "Ġgold": 6410,
      "Ġ25": 6411,
      "Ġtriple": 6412,
      "ĠMatrix": 6413,
      "alf": 6414,
      "ĠMis": 6415,
      "Ġideal": 6416,
      "Ġcommercial": 6417,
      "dle": 6418,
      "Ġwave": 6419,
      "Ġphrases": 6420,
      "12": 6421,
      "Ġatten": 6422,
      "Ġfailures": 6423,
      "Ġexpansion": 6424,
      "Ġdedicated": 6425,
      "ites": 6426,
      "Ġweighting": 6427,
      "ithmetic": 6428,
      "Ġbuilds": 6429,
      "ĠNovel": 6430,
      "Ġlaws": 6431,
      "Ġmorphological": 6432,
      "Fs": 6433,
      "tenance": 6434,
      "Ġobst": 6435,
      "Ġannotators": 6436,
      "/\\": 6437,
      "Ġsubjective": 6438,
      "Ġampl": 6439,
      "Ġirrelevant": 6440,
      "Ġgrammatical": 6441,
      "Ġresponsible": 6442,
      "ĠRespon": 6443,
      "Ġbackbone": 6444,
      "Ġprototype": 6445,
      "ĠPath": 6446,
      "sequences": 6447,
      "Ġshowc": 6448,
      "Ġsupported": 6449,
      "Ġconnectivity": 6450,
      "PA": 6451,
      "Ġspatiotemporal": 6452,
      "Fed": 6453,
      "fidelity": 6454,
      "Ġinject": 6455,
      "Ġeigen": 6456,
      "Ġexplaining": 6457,
      "Ġbelong": 6458,
      "crafted": 6459,
      "Ġfoot": 6460,
      "lob": 6461,
      "board": 6462,
      "Ġdefining": 6463,
      "Ġcooperative": 6464,
      "ĠEmotion": 6465,
      "ĠEM": 6466,
      "Ġcharacters": 6467,
      "Ġinner": 6468,
      "Ġminimax": 6469,
      "Ġsimulator": 6470,
      "}$,": 6471,
      "Ġcompil": 6472,
      "Ġround": 6473,
      "Ġdatabases": 6474,
      "riend": 6475,
      "Ġdemographic": 6476,
      "Ġcomprehensi": 6477,
      "ĠFeatures": 6478,
      "bre": 6479,
      "uction": 6480,
      "Ġmim": 6481,
      "Ġintract": 6482,
      "Ġlacking": 6483,
      "Ġdetermined": 6484,
      "ĠSSL": 6485,
      "Ġalgebra": 6486,
      "Ġchild": 6487,
      "Ġregularized": 6488,
      "PL": 6489,
      "points": 6490,
      "Ġcircum": 6491,
      "Ġbody": 6492,
      "predic": 6493,
      "iding": 6494,
      "ĠAnd": 6495,
      "ĠUnified": 6496,
      "Ġcoarse": 6497,
      "ĠDual": 6498,
      "Ġacceleration": 6499,
      "ĠDirect": 6500,
      "ticip": 6501,
      "Driven": 6502,
      "ĠLanguages": 6503,
      "ĠMatching": 6504,
      "Ġappe": 6505,
      "otstra": 6506,
      "ĠEng": 6507,
      "truth": 6508,
      "ĠUniversal": 6509,
      "Ġevolutionary": 6510,
      "Ġswit": 6511,
      "Ġcompos": 6512,
      "Ġ2020": 6513,
      "Ġ90": 6514,
      "Ġenfor": 6515,
      "ĠDynamics": 6516,
      "anese": 6517,
      "stanti": 6518,
      "Ġoverl": 6519,
      "empor": 6520,
      "wareness": 6521,
      "answering": 6522,
      "through": 6523,
      "Ġthird": 6524,
      "Ġhomogen": 6525,
      "DM": 6526,
      "Ġflo": 6527,
      "Ġdevelopments": 6528,
      "Ġaveraging": 6529,
      "Ġscrip": 6530,
      "Ġstreams": 6531,
      "Ġmus": 6532,
      "Ġfraud": 6533,
      "Ġhund": 6534,
      "Ġsharp": 6535,
      "Ġhad": 6536,
      "Ġschema": 6537,
      "Ġ}.": 6538,
      "bed": 6539,
      "atus": 6540,
      "Ġitem": 6541,
      "version": 6542,
      "Ġnotes": 6543,
      "such": 6544,
      "ĠGenerating": 6545,
      "Ġprice": 6546,
      "break": 6547,
      "ĠSimple": 6548,
      "etary": 6549,
      "Ġ17": 6550,
      "bs": 6551,
      "no": 6552,
      "Ġmaintains": 6553,
      "oks": 6554,
      "dif": 6555,
      "Ġcompress": 6556,
      "CC": 6557,
      "asive": 6558,
      "Ġarri": 6559,
      "Ġobtains": 6560,
      "Ġsurprisingly": 6561,
      "Ġpooling": 6562,
      "Ġforecasts": 6563,
      "OOD": 6564,
      "batch": 6565,
      "zing": 6566,
      "ĠSE": 6567,
      "Ġpredominant": 6568,
      "aching": 6569,
      "ĠIf": 6570,
      "ĠEdge": 6571,
      "annotated": 6572,
      "data": 6573,
      "TL": 6574,
      "bolic": 6575,
      "Ġindeed": 6576,
      "ĠTrac": 6577,
      "Ġcarried": 6578,
      "ĠPDE": 6579,
      "Ġseparation": 6580,
      "ĠAgg": 6581,
      "ĠFil": 6582,
      "ĠMoE": 6583,
      "Ġeducational": 6584,
      "Ġdevise": 6585,
      "ambiguation": 6586,
      "Ġambiguity": 6587,
      "estim": 6588,
      "ĠIts": 6589,
      "ĠSynthetic": 6590,
      "Ġmismatch": 6591,
      "ativity": 6592,
      "Ġphrase": 6593,
      "ounding": 6594,
      "ĠBandits": 6595,
      "Ġubiquitous": 6596,
      "Efficient": 6597,
      "Ġmodification": 6598,
      "ĠSpect": 6599,
      "ĠDetecting": 6600,
      "Ġdrawback": 6601,
      "Ġcumulative": 6602,
      "inc": 6603,
      "ĠRecomm": 6604,
      "Ġfoundational": 6605,
      "Ġusefulness": 6606,
      "Ġjudgments": 6607,
      "ium": 6608,
      "sample": 6609,
      "Ġthems": 6610,
      "ĠFrench": 6611,
      "state": 6612,
      "Ġcompressed": 6613,
      "ressively": 6614,
      "ĠUser": 6615,
      "Ġplug": 6616,
      "Ġacquire": 6617,
      "Context": 6618,
      "Ġthemselves": 6619,
      "Ġstationary": 6620,
      "Ġparser": 6621,
      "Ġsimplicity": 6622,
      "psilon": 6623,
      "Ġcausality": 6624,
      "Ġlogistic": 6625,
      "Ġrecognize": 6626,
      "QN": 6627,
      "asting": 6628,
      "Ġprecisely": 6629,
      "aut": 6630,
      "written": 6631,
      "ĠExplanations": 6632,
      "Ġcompeting": 6633,
      "Ġdate": 6634,
      "ĠAnnot": 6635,
      "Ġinformed": 6636,
      "det": 6637,
      "ĠAre": 6638,
      "NO": 6639,
      "cibility": 6640,
      "Ġcomplexities": 6641,
      "As": 6642,
      "Ġonce": 6643,
      "obser": 6644,
      "efficients": 6645,
      "Ġperce": 6646,
      "ĠEven": 6647,
      "Ġformer": 6648,
      "Ġpivotal": 6649,
      "Ġpossess": 6650,
      "ĠSimilarity": 6651,
      "Ġrevolution": 6652,
      "Ġexempl": 6653,
      "ĠSpanish": 6654,
      "Ġmacro": 6655,
      "Nets": 6656,
      "ART": 6657,
      "ĠLapl": 6658,
      "ikelihood": 6659,
      "hard": 6660,
      "Ġproposal": 6661,
      "Ġoptimisation": 6662,
      "Ġregul": 6663,
      "ĠEnt": 6664,
      "NMT": 6665,
      "Ġultim": 6666,
      "Ġarises": 6667,
      "loop": 6668,
      "ĠEnhanced": 6669,
      "Ġkeeping": 6670,
      "Ġthousands": 6671,
      "Ġinconsistent": 6672,
      "ĠICL": 6673,
      "Ġquite": 6674,
      "Ġsmoothing": 6675,
      "Ġvideos": 6676,
      "Ġunbiased": 6677,
      "Ġprobing": 6678,
      "ĠScaling": 6679,
      "Ġplausible": 6680,
      "Ġtables": 6681,
      "Ġbin": 6682,
      "ifiers": 6683,
      "Ġuncertainties": 6684,
      "mmetric": 6685,
      "Ġexponentially": 6686,
      "Ã©": 6687,
      "ĠMask": 6688,
      "Ġunexplored": 6689,
      "Ġstatements": 6690,
      "Ġaffected": 6691,
      "Ġmomentum": 6692,
      "Ġsubjects": 6693,
      "Ġmisinformation": 6694,
      "Level": 6695,
      "Ġaccomplish": 6696,
      "ĠQuality": 6697,
      "ĠSemEval": 6698,
      "net": 6699,
      "Ġten": 6700,
      "ĠMob": 6701,
      "Ġfinds": 6702,
      "Ġobservable": 6703,
      "going": 6704,
      "Ġport": 6705,
      "Ġoptions": 6706,
      "Ar": 6707,
      "CoT": 6708,
      "ĠMechan": 6709,
      "Ġstrategic": 6710,
      "ĠPredictive": 6711,
      "Ġpositions": 6712,
      "Ġdemonstration": 6713,
      "Ġadjus": 6714,
      "Ġremove": 6715,
      "ĠGem": 6716,
      "Ġbeliefs": 6717,
      "lobally": 6718,
      "Ġincorporated": 6719,
      "Ġtrustworthy": 6720,
      "ox": 6721,
      "leep": 6722,
      "umn": 6723,
      "ĠCharacter": 6724,
      "Ġput": 6725,
      "NAS": 6726,
      "ĠFusion": 6727,
      "ĠDevelop": 6728,
      "Ġheavy": 6729,
      "Ġcontroller": 6730,
      "Ġignore": 6731,
      "Ġcomprises": 6732,
      "Ġphon": 6733,
      "ĠRegularization": 6734,
      "ĠModern": 6735,
      "sers": 6736,
      "Ġleveraged": 6737,
      "Ġmaximization": 6738,
      "Ġintervals": 6739,
      "ras": 6740,
      "ĠRNNs": 6741,
      "Ġintensive": 6742,
      "Ġplayer": 6743,
      "Ġenabled": 6744,
      "ĠKGs": 6745,
      "fold": 6746,
      "NT": 6747,
      "Ġ80": 6748,
      "OL": 6749,
      "ont": 6750,
      "Ġbarri": 6751,
      "Ġreform": 6752,
      "Ġoptimizer": 6753,
      "ĠNeighb": 6754,
      "Ġinstanti": 6755,
      "elerated": 6756,
      "At": 6757,
      "omings": 6758,
      "Gen": 6759,
      "Sc": 6760,
      "Ġnuanced": 6761,
      "SH": 6762,
      "Ġinefficient": 6763,
      "acr": 6764,
      "ĠUtil": 6765,
      "Ġconsensus": 6766,
      "RT": 6767,
      "pass": 6768,
      "Ġmini": 6769,
      "Ġenhancement": 6770,
      "Ġambiguous": 6771,
      "target": 6772,
      "resolution": 6773,
      "Ġvulnerability": 6774,
      "ĠFl": 6775,
      "biasing": 6776,
      "tier": 6777,
      "Ġmillions": 6778,
      "essian": 6779,
      "Ġmemorization": 6780,
      "Ġnarrow": 6781,
      "Ġinac": 6782,
      "style": 6783,
      "ĠAutonomous": 6784,
      "rounding": 6785,
      "Ġgeneralizable": 6786,
      "crib": 6787,
      "Ġcoefficients": 6788,
      "olistic": 6789,
      "opic": 6790,
      "ĠJap": 6791,
      "ommod": 6792,
      "Ġpay": 6793,
      "letion": 6794,
      "veloper": 6795,
      "Scale": 6796,
      "ming": 6797,
      "precision": 6798,
      "ĠOpenAI": 6799,
      "Ġtranslate": 6800,
      "olean": 6801,
      "acrific": 6802,
      "DF": 6803,
      "Ne": 6804,
      "similar": 6805,
      "ĠCounterfactual": 6806,
      "Ġhosp": 6807,
      "Ġ2019": 6808,
      "ĠConversational": 6809,
      "Term": 6810,
      "ĠApplication": 6811,
      "Ġearlier": 6812,
      "Ġorthogonal": 6813,
      "Ġrecip": 6814,
      "adily": 6815,
      "ĠPat": 6816,
      "Ġautomation": 6817,
      "Task": 6818,
      "answer": 6819,
      "odied": 6820,
      "Ġharn": 6821,
      "Ġcovariance": 6822,
      "Ġauthor": 6823,
      "DI": 6824,
      "}(\\": 6825,
      "ĠHin": 6826,
      "Ġarms": 6827,
      "Ġsimplified": 6828,
      "Ġec": 6829,
      "Ġworse": 6830,
      "Ġdiscovered": 6831,
      "mathbf": 6832,
      "Ġshortcomings": 6833,
      "Ġcompatible": 6834,
      "Ġwireless": 6835,
      "ĠGeneralized": 6836,
      "Ġoutlier": 6837,
      "print": 6838,
      "MS": 6839,
      "Ġnaive": 6840,
      "Ġnotions": 6841,
      "Ġpresenting": 6842,
      "Ġbilingual": 6843,
      "Ġaven": 6844,
      "Ġphases": 6845,
      "Ġjob": 6846,
      "Ġlinearly": 6847,
      "Ġunderexplored": 6848,
      "Ġneuron": 6849,
      "Ġscarce": 6850,
      "Ġincluded": 6851,
      "LoRA": 6852,
      "Ġanalytics": 6853,
      "ĠPromp": 6854,
      "entropy": 6855,
      "Ġaccommod": 6856,
      "ĠAda": 6857,
      "Ġproperly": 6858,
      "Ġbackpropagation": 6859,
      "Ġsacrific": 6860,
      "omorph": 6861,
      "ĠComplex": 6862,
      "ĠAcross": 6863,
      "Ġsoftmax": 6864,
      "lig": 6865,
      "wen": 6866,
      "Ġdisp": 6867,
      "Ġontologies": 6868,
      "onent": 6869,
      "spaces": 6870,
      "Ġcomments": 6871,
      "ĠObser": 6872,
      "riendly": 6873,
      "14": 6874,
      "rag": 6875,
      "otes": 6876,
      "Ġrevis": 6877,
      "%)": 6878,
      "Ġcontrolling": 6879,
      "Ġfollows": 6880,
      "sub": 6881,
      "ĠVe": 6882,
      "ĠChallenge": 6883,
      "commerce": 6884,
      "ĠLayer": 6885,
      "Ġdistil": 6886,
      "Ġordering": 6887,
      "Ġfrequent": 6888,
      "Ġteams": 6889,
      "}^": 6890,
      "Ġx": 6891,
      "invariant": 6892,
      "Ġconserv": 6893,
      "Ġserious": 6894,
      "ĠShapley": 6895,
      "70": 6896,
      "Ġadditive": 6897,
      "BP": 6898,
      "Ġaud": 6899,
      "ĠProt": 6900,
      "Ġsequentially": 6901,
      "CF": 6902,
      "ief": 6903,
      "roid": 6904,
      "ĠHessian": 6905,
      "Ġreplic": 6906,
      "^{-": 6907,
      "type": 6908,
      "Ġrounds": 6909,
      "mathbb": 6910,
      "Ġexactly": 6911,
      "ĠSequential": 6912,
      "15": 6913,
      "inf": 6914,
      "Ġbidirectional": 6915,
      "Ġextracts": 6916,
      "Ġrobotic": 6917,
      "bots": 6918,
      "Ġpreserves": 6919,
      "Ġweakly": 6920,
      "symbolic": 6921,
      "Ġresolve": 6922,
      "Ġalloc": 6923,
      "cremental": 6924,
      "uration": 6925,
      "Ġlinking": 6926,
      "Ġversus": 6927,
      "25": 6928,
      "kit": 6929,
      "ultic": 6930,
      "Ġunlike": 6931,
      "Ġnote": 6932,
      "Ġpix": 6933,
      "Ġphone": 6934,
      "Ġobservational": 6935,
      "Ġchannels": 6936,
      "Ġconstitu": 6937,
      "isted": 6938,
      "Ġsurpassing": 6939,
      "ĠTechniqu": 6940,
      "Ġminima": 6941,
      "ĠSimulation": 6942,
      "Ġencompass": 6943,
      "Ġmasking": 6944,
      "Ġinduce": 6945,
      "Ġsummarize": 6946,
      "ĠParallel": 6947,
      "mitted": 6948,
      "Ġnames": 6949,
      "Ġequivalence": 6950,
      "ĠSw": 6951,
      "Ġseem": 6952,
      "Ġregimes": 6953,
      "Ġworkers": 6954,
      "---": 6955,
      "Ġretaining": 6956,
      "negative": 6957,
      "ĠDepend": 6958,
      "Ġmedicine": 6959,
      "ĠPruning": 6960,
      "ĠCF": 6961,
      "Ġperplexity": 6962,
      "Ġpurpos": 6963,
      "control": 6964,
      "Ġseamlessly": 6965,
      "down": 6966,
      "Ġspread": 6967,
      "factory": 6968,
      "Ġconcrete": 6969,
      "hy": 6970,
      "ĠRem": 6971,
      "Ġformula": 6972,
      "Ġredundancy": 6973,
      "ĠLastly": 6974,
      "aligned": 6975,
      "Ġraises": 6976,
      "Ġsuggested": 6977,
      "Ġprofiles": 6978,
      "Ġintractable": 6979,
      "gram": 6980,
      "ze": 6981,
      "att": 6982,
      "Ġstress": 6983,
      "ĠPE": 6984,
      "imited": 6985,
      "Ġleakage": 6986,
      "DC": 6987,
      "Ġalter": 6988,
      "Ġsympt": 6989,
      "ĠSafety": 6990,
      "MoE": 6991,
      "ĠCommunication": 6992,
      "entiable": 6993,
      "Ġverified": 6994,
      "Ġconditioned": 6995,
      "Ġname": 6996,
      "ogle": 6997,
      "writing": 6998,
      "18": 6999,
      "Ġsubstit": 7000,
      "Ġnecessity": 7001,
      "ĠAT": 7002,
      "Ġactually": 7003,
      "Ġnecessarily": 7004,
      "ĠPerspective": 7005,
      "Ġestablishes": 7006,
      "ĠCPU": 7007,
      "Graph": 7008,
      "Ġcues": 7009,
      "Ġdeveloper": 7010,
      "orch": 7011,
      "load": 7012,
      "Ġdescribing": 7013,
      "Ġnarrative": 7014,
      "IID": 7015,
      "lections": 7016,
      "ĠKL": 7017,
      "Ġlater": 7018,
      "Ġdiscovering": 7019,
      "Ġcache": 7020,
      "Ġinvariance": 7021,
      "Ġchoosing": 7022,
      "Ġelectronic": 7023,
      "ystem": 7024,
      "ĠThird": 7025,
      "Ġstatus": 7026,
      "Ġdiver": 7027,
      "Ġinvestigating": 7028,
      "Ġlacks": 7029,
      "ĠAggreg": 7030,
      "mentioned": 7031,
      "mentation": 7032,
      "Ġspans": 7033,
      "Ġarithmetic": 7034,
      "Ġeconomic": 7035,
      "easible": 7036,
      "LA": 7037,
      "Ġmaintenance": 7038,
      "Ġelectric": 7039,
      "Ġmist": 7040,
      "ict": 7041,
      "Ġretrieve": 7042,
      "ĠSecondly": 7043,
      "Ġcrowds": 7044,
      "RP": 7045,
      "Ġinterpolation": 7046,
      "frequency": 7047,
      "Ġabstractive": 7048,
      "Ġprioritiz": 7049,
      "exper": 7050,
      "Ġmembership": 7051,
      "Ġthinking": 7052,
      "ĠTuning": 7053,
      "Ġglobally": 7054,
      "Ġdiscrimination": 7055,
      "Ġopinions": 7056,
      "ĠAutoencoder": 7057,
      "aper": 7058,
      "Ġpush": 7059,
      "ĠPrin": 7060,
      "Ġ24": 7061,
      "ĠEncoder": 7062,
      "ĠFoundation": 7063,
      "etal": 7064,
      "ermin": 7065,
      "book": 7066,
      "Ġrecommender": 7067,
      "Free": 7068,
      "Ġconditioning": 7069,
      "Ġunderscore": 7070,
      "Ġformally": 7071,
      "Ġcredit": 7072,
      "Ġcalls": 7073,
      "Ġcritic": 7074,
      "Ġcollecting": 7075,
      "Ġdoing": 7076,
      "Ġthought": 7077,
      "Ġtransparent": 7078,
      "Trans": 7079,
      "Ġundes": 7080,
      "ĠComputational": 7081,
      "arying": 7082,
      "Ġmanufacturing": 7083,
      "output": 7084,
      "ĠInstruction": 7085,
      "Ġstandardized": 7086,
      "Ġnorms": 7087,
      "Ġsurvival": 7088,
      "Ġmovement": 7089,
      "Ġoptimizers": 7090,
      "thought": 7091,
      "Ġformalize": 7092,
      "Ġbrings": 7093,
      "OT": 7094,
      "Ġbre": 7095,
      "ĠYou": 7096,
      "Ġirregular": 7097,
      "mon": 7098,
      "inates": 7099,
      "Ġmanage": 7100,
      "Ġquantized": 7101,
      "ĠTopic": 7102,
      "Op": 7103,
      "da": 7104,
      "lity": 7105,
      "Ġproving": 7106,
      "amma": 7107,
      "ĠUp": 7108,
      "Ġprotocols": 7109,
      "Ġinterpreting": 7110,
      "ĠJapanese": 7111,
      "parameterized": 7112,
      "Ġepoch": 7113,
      "Ġlexicon": 7114,
      "Ġdecoupl": 7115,
      "Ġlogarith": 7116,
      "Ġaggregated": 7117,
      "emporary": 7118,
      "Gs": 7119,
      "ulates": 7120,
      "ĠCompression": 7121,
      "Ġtradeoff": 7122,
      "Ġcomprehensively": 7123,
      "adata": 7124,
      "isease": 7125,
      "Ġ70": 7126,
      "Ġassumed": 7127,
      "ĠVehic": 7128,
      "sum": 7129,
      "Ġagnostic": 7130,
      "ĠArgu": 7131,
      "Ġadapts": 7132,
      "ĠGPUs": 7133,
      "Ġreproducibility": 7134,
      "Ġworkflows": 7135,
      "ĠStatistical": 7136,
      "Ġlabelled": 7137,
      "sampling": 7138,
      "Ġpaired": 7139,
      "Ġinterference": 7140,
      "Ġnovelty": 7141,
      "Ġpenalty": 7142,
      "IM": 7143,
      "Ġdefenses": 7144,
      "CTS": 7145,
      "Ġasynchronous": 7146,
      "icians": 7147,
      "Ġlens": 7148,
      "ĠDep": 7149,
      "Ġacquired": 7150,
      "Ġfinally": 7151,
      "ĠFirstly": 7152,
      "sed": 7153,
      "Ġfinance": 7154,
      "Ġsociety": 7155,
      "gers": 7156,
      "ĠSample": 7157,
      "teness": 7158,
      "Ġinfrastructure": 7159,
      "GB": 7160,
      "Ġintended": 7161,
      "ourcing": 7162,
      "ĠSolving": 7163,
      "amil": 7164,
      "Ġseed": 7165,
      "ĠAnswer": 7166,
      "Ġprincipal": 7167,
      "ĠPersonalized": 7168,
      "Ġsatisfaction": 7169,
      "Ġoccurs": 7170,
      "Ġsaving": 7171,
      "ĠMu": 7172,
      "Ġimportantly": 7173,
      "Ġexperimentation": 7174,
      "efficiency": 7175,
      "Ġcasc": 7176,
      "ĠTyp": 7177,
      "Ġnearest": 7178,
      "Ġaccuracies": 7179,
      "Ġoutline": 7180,
      "CNNs": 7181,
      "ĠBO": 7182,
      "Ġdegrees": 7183,
      "ĠNoise": 7184,
      "Ġassessments": 7185,
      "ĠGoogle": 7186,
      "ao": 7187,
      "Ġquantifying": 7188,
      "Ġslot": 7189,
      "Ġasymptotic": 7190,
      "Ġpurposes": 7191,
      "vis": 7192,
      "ĠScore": 7193,
      "Ġsurve": 7194,
      "Ġalongside": 7195,
      "Ġadjac": 7196,
      "Ġhalf": 7197,
      "ĠImplicit": 7198,
      "ĠQuantization": 7199,
      "Ġnever": 7200,
      "occ": 7201,
      "Ġsearching": 7202,
      "Ġexpectation": 7203,
      "Ġtens": 7204,
      "Ġimpos": 7205,
      "Ġdecay": 7206,
      "Ġidentity": 7207,
      "Ġregardless": 7208,
      "Ġpurely": 7209,
      "ĠMAP": 7210,
      "Ġattributed": 7211,
      "Ġmar": 7212,
      "Ġcanonical": 7213,
      "seq": 7214,
      "ĠKB": 7215,
      "norm": 7216,
      "ĠSA": 7217,
      "ractions": 7218,
      "ĠExten": 7219,
      "ĠProp": 7220,
      "Ġinferring": 7221,
      "Ġimm": 7222,
      "IP": 7223,
      "Ġthroughput": 7224,
      "texttt": 7225,
      "Ġtransformed": 7226,
      "size": 7227,
      "ĠMix": 7228,
      "ĠNeuro": 7229,
      "rected": 7230,
      "rief": 7231,
      "Ġratings": 7232,
      "Ġquantities": 7233,
      "Ġpoisoning": 7234,
      "fil": 7235,
      "ali": 7236,
      "asion": 7237,
      "ĠSubsequently": 7238,
      "Ġrobots": 7239,
      "ĠWork": 7240,
      "Ġsubtasks": 7241,
      "Ġheart": 7242,
      "Ġparameterized": 7243,
      "Ġpersonality": 7244,
      "amba": 7245,
      "Ġawareness": 7246,
      "ĠToken": 7247,
      "Ġcolumn": 7248,
      "Ġapproximating": 7249,
      "Ġguiding": 7250,
      "Ġenforce": 7251,
      "Ġspecification": 7252,
      "Ġlatest": 7253,
      "Ġcharacteristic": 7254,
      "ĠBenchmarking": 7255,
      "Es": 7256,
      "ĠSol": 7257,
      "ĠGame": 7258,
      "Ġnotably": 7259,
      "Ġweaknesses": 7260,
      "esh": 7261,
      "ritic": 7262,
      "Ġpronoun": 7263,
      "Ġpiece": 7264,
      "owered": 7265,
      "embling": 7266,
      "ĠSynth": 7267,
      "Ġoverlap": 7268,
      "Ġjudge": 7269,
      "ĠECG": 7270,
      "ĠExperiment": 7271,
      "Ġequally": 7272,
      "ĠBoosting": 7273,
      "++": 7274,
      "enhanced": 7275,
      "Ġreadily": 7276,
      "ĠCognitive": 7277,
      "device": 7278,
      "Ġconducting": 7279,
      "Ġlengths": 7280,
      "Ġrarely": 7281,
      "ĠMachines": 7282,
      "Ġconsiderably": 7283,
      "ĠBlack": 7284,
      "Ġrespective": 7285,
      "ĠRi": 7286,
      "tified": 7287,
      "Ġrobotics": 7288,
      "Ġbatter": 7289,
      "stable": 7290,
      "Ġconsequences": 7291,
      "Ġoperates": 7292,
      "Ġconflict": 7293,
      "ĠTur": 7294,
      "ĠSL": 7295,
      "Ġabund": 7296,
      "ĠOnt": 7297,
      "Ġburden": 7298,
      "Ġgene": 7299,
      "Ġdro": 7300,
      "Ġsubsequently": 7301,
      "Ġencodes": 7302,
      "Ġpersonalization": 7303,
      "Ġpermutation": 7304,
      "ĠPDEs": 7305,
      "Ġquantity": 7306,
      "Ġcurve": 7307,
      "Ġepistemic": 7308,
      "Ġseeks": 7309,
      "SF": 7310,
      "ĠEvolution": 7311,
      "umor": 7312,
      "Ġcreates": 7313,
      "appro": 7314,
      "Ġcognition": 7315,
      "ĠAcceler": 7316,
      "ĠMitig": 7317,
      "Ġmemor": 7318,
      "Ġexploitation": 7319,
      "Ġdrastic": 7320,
      "Thought": 7321,
      "Ġ($": 7322,
      "ĠSAT": 7323,
      "umes": 7324,
      "Ġintuition": 7325,
      "Ġcoh": 7326,
      "Ġsolves": 7327,
      "Ġequilibrium": 7328,
      "Ġ2021": 7329,
      "vision": 7330,
      "ĠAugmented": 7331,
      "ĠInverse": 7332,
      "adaptive": 7333,
      "ĠDecomposition": 7334,
      "uble": 7335,
      "reds": 7336,
      "Ġprotection": 7337,
      "LUE": 7338,
      "Ġgradually": 7339,
      "DRL": 7340,
      "WL": 7341,
      "Ġexplor": 7342,
      "conditioned": 7343,
      "Ġsw": 7344,
      "ĠCA": 7345,
      "Ġconclusions": 7346,
      "Ġidentical": 7347,
      "IR": 7348,
      "coming": 7349,
      "Ġbag": 7350,
      "Ġholistic": 7351,
      "Ġstored": 7352,
      "acts": 7353,
      "Ġcompromising": 7354,
      "13": 7355,
      "field": 7356,
      "Ġera": 7357,
      "ĠSpec": 7358,
      "Ġconsiderations": 7359,
      "ĠImproved": 7360,
      "critic": 7361,
      "ysi": 7362,
      "Ġstim": 7363,
      "Ġdispar": 7364,
      "Ġrender": 7365,
      "Ġaligns": 7366,
      "ĠApproximation": 7367,
      "ĠPub": 7368,
      "Ġmoving": 7369,
      "Ġindicators": 7370,
      "ĠEngine": 7371,
      "KD": 7372,
      "Ġanti": 7373,
      "ĠTD": 7374,
      "Ġchains": 7375,
      "Ġ60": 7376,
      "Ġentries": 7377,
      "Ġtraces": 7378,
      "ĠImprove": 7379,
      "Ġadditionally": 7380,
      "Ġtry": 7381,
      "ĠRoBERTa": 7382,
      "Ġcoordinate": 7383,
      "Ġencountered": 7384,
      "solving": 7385,
      "ratives": 7386,
      "udes": 7387,
      "shelf": 7388,
      "Ġtrial": 7389,
      "Ġmimic": 7390,
      "Ġfitting": 7391,
      "nian": 7392,
      "Ġsymmetry": 7393,
      "Ġdominant": 7394,
      "Ġpursu": 7395,
      "Ġhapp": 7396,
      "Ġelicit": 7397,
      "Ġtoday": 7398,
      "Ġrough": 7399,
      "Ġhypergraph": 7400,
      "Ġassuming": 7401,
      "horizon": 7402,
      "ecks": 7403,
      "acher": 7404,
      "ĠPCA": 7405,
      "ĠPartial": 7406,
      "ĠMining": 7407,
      "Ġversatile": 7408,
      "ĠAf": 7409,
      "Ġserving": 7410,
      "Ġassessed": 7411,
      "Ġpositional": 7412,
      "Ġbillion": 7413,
      "Ġbackward": 7414,
      "Ġsuited": 7415,
      "Ġcarry": 7416,
      "Ġsa": 7417,
      "edge": 7418,
      "Ġselective": 7419,
      "Ġtransferring": 7420,
      "Ġmitigates": 7421,
      "Ġgrows": 7422,
      "Ġgenetic": 7423,
      "Ġruns": 7424,
      "Ġdramatically": 7425,
      "Ġbeam": 7426,
      "Ġsymmetric": 7427,
      "Ġexchange": 7428,
      "ĠAction": 7429,
      "ĠSpatial": 7430,
      "ĠKV": 7431,
      "Ġgranularity": 7432,
      "IG": 7433,
      "vature": 7434,
      "eric": 7435,
      "ections": 7436,
      "ĠLight": 7437,
      "ĠMLLMs": 7438,
      "vare": 7439,
      "Ġcovers": 7440,
      "ĠMARL": 7441,
      "Ġpossibly": 7442,
      "ĠDT": 7443,
      "iber": 7444,
      "Ġequipped": 7445,
      "ean": 7446,
      "tioning": 7447,
      "Ġinduction": 7448,
      "ĠSafe": 7449,
      "$^": 7450,
      "Ġafore": 7451,
      "ega": 7452,
      "Ġiniti": 7453,
      "Ġviewed": 7454,
      "Ġtranslating": 7455,
      "Ġhundreds": 7456,
      "anding": 7457,
      "image": 7458,
      "radic": 7459,
      "ĠDatasets": 7460,
      "liance": 7461,
      "Ġinteracting": 7462,
      "varepsilon": 7463,
      "mann": 7464,
      "tiveness": 7465,
      "connected": 7466,
      "ĠConstrained": 7467,
      "ĠDA": 7468,
      "Ġanalyse": 7469,
      "ĠEntropy": 7470,
      "DR": 7471,
      "Ġminimizes": 7472,
      "Ġreturns": 7473,
      "Ġaforementioned": 7474,
      "rical": 7475,
      "Ġadverti": 7476,
      "Ġemergent": 7477,
      "Ġsmoothness": 7478,
      "Guided": 7479,
      "vec": 7480,
      "udied": 7481,
      "ĠAutoencoders": 7482,
      "IE": 7483,
      "ĠMolec": 7484,
      "ĠWorld": 7485,
      "ĠComputing": 7486,
      "modular": 7487,
      "30": 7488,
      "Ġhind": 7489,
      "Ġinferred": 7490,
      "Ġregularizer": 7491,
      "liable": 7492,
      "ĠPrivate": 7493,
      "ĠQwen": 7494,
      "Ġexamines": 7495,
      "An": 7496,
      "Ġpress": 7497,
      "Ġrefined": 7498,
      "Ġcounterpart": 7499,
      "Ġformalism": 7500,
      "Ġeliminating": 7501,
      "Ġminority": 7502,
      "Ġmetadata": 7503,
      "Ġformats": 7504,
      "networks": 7505,
      "Ġslightly": 7506,
      "ale": 7507,
      "Ġvaried": 7508,
      "ambda": 7509,
      "ĠDistance": 7510,
      "ĠChallenges": 7511,
      "Ġpropri": 7512,
      "Ġdetectors": 7513,
      "Ġcontributing": 7514,
      "ĠPartic": 7515,
      "Or": 7516,
      "ications": 7517,
      "omics": 7518,
      "Ġfaced": 7519,
      "ĠParsing": 7520,
      "NS": 7521,
      "Om": 7522,
      ")$,": 7523,
      "Ġassociation": 7524,
      "Ġexploited": 7525,
      "Ġrepository": 7526,
      "FA": 7527,
      "bor": 7528,
      "ĠConc": 7529,
      "ilience": 7530,
      "Ġ2023": 7531,
      "essment": 7532,
      "istance": 7533,
      "Ġassigned": 7534,
      "Ġmisclass": 7535,
      "Ġrecursive": 7536,
      "Ġscene": 7537,
      "Ġmixing": 7538,
      "Ġcyber": 7539,
      "Ġ,": 7540,
      "Ġlocalization": 7541,
      "Ġconcerning": 7542,
      "Ġclearly": 7543,
      "ience": 7544,
      "ĠTarget": 7545,
      "ĠFunctions": 7546,
      "ositional": 7547,
      "Ġtransforms": 7548,
      "ĠConsider": 7549,
      "De": 7550,
      "ĠIC": 7551,
      "ĠRM": 7552,
      "Ġ2018": 7553,
      "inspired": 7554,
      "Ġhash": 7555,
      "Ġmisle": 7556,
      "avail": 7557,
      "Ġentailment": 7558,
      "agraph": 7559,
      "tivation": 7560,
      "Ġwebs": 7561,
      "Ġpsychological": 7562,
      "io": 7563,
      "Ġday": 7564,
      "ĠSmall": 7565,
      "Ġexamined": 7566,
      "SVM": 7567,
      "eries": 7568,
      "Ġongoing": 7569,
      "Ġdisag": 7570,
      "ultural": 7571,
      "cience": 7572,
      "Ġsalient": 7573,
      "Ġpackage": 7574,
      "Ġintersection": 7575,
      "Ġlingu": 7576,
      "Ġavoids": 7577,
      "Ġcloser": 7578,
      "ĠPoly": 7579,
      "32": 7580,
      "Ġcompares": 7581,
      "andemic": 7582,
      "Ġinterpretations": 7583,
      "ke": 7584,
      "performance": 7585,
      "Ġargumentation": 7586,
      "Ġoption": 7587,
      "Ġrecording": 7588,
      "Ġmodify": 7589,
      "fix": 7590,
      "rec": 7591,
      "Ġaggregating": 7592,
      "Ġtrustworthiness": 7593,
      "expected": 7594,
      "Ġimpractical": 7595,
      "Ġhomogeneous": 7596,
      "Ġoutside": 7597,
      "jections": 7598,
      "ĠDef": 7599,
      "ĠDecoding": 7600,
      "Ġdevelopers": 7601,
      "Ġstance": 7602,
      "acian": 7603,
      "Ġsusceptible": 7604,
      "Ġonto": 7605,
      "Ġprem": 7606,
      "Ġexamining": 7607,
      "Ġreplacing": 7608,
      "Attention": 7609,
      "bl": 7610,
      "oir": 7611,
      "Ġ2022": 7612,
      "95": 7613,
      "GBoost": 7614,
      "Ġther": 7615,
      "Ġpartitioning": 7616,
      "ĠCollabor": 7617,
      "Ġframes": 7618,
      "Ġcourse": 7619,
      "ulus": 7620,
      "Ġsubgroup": 7621,
      "ĠAccording": 7622,
      "Ġpredominantly": 7623,
      "ĠPattern": 7624,
      "Med": 7625,
      "Ġmentions": 7626,
      "Ġimag": 7627,
      "afe": 7628,
      "Ġorganization": 7629,
      "varying": 7630,
      "Ġcontemporary": 7631,
      "Ġdecades": 7632,
      "Ġsubtle": 7633,
      "Ġedit": 7634,
      "Ġinnovation": 7635,
      "Ġoverlooked": 7636,
      "ĠWMT": 7637,
      "ĠGames": 7638,
      "Ġdouble": 7639,
      "Ġteaching": 7640,
      "Ġencourages": 7641,
      "PF": 7642,
      "co": 7643,
      "ĠAG": 7644,
      "GANs": 7645,
      "Ġcircuit": 7646,
      "):": 7647,
      "Ġinferences": 7648,
      "ĠTri": 7649,
      "ĠMedia": 7650,
      "Ġexcel": 7651,
      "Ro": 7652,
      "_{\\": 7653,
      "Ġtends": 7654,
      "ĠBel": 7655,
      "Ġencouraging": 7656,
      "Domain": 7657,
      "ĠStream": 7658,
      "ĠScience": 7659,
      "200": 7660,
      "Ġanch": 7661,
      "unc": 7662,
      "ilos": 7663,
      "ĠInvestig": 7664,
      "otor": 7665,
      "ĠSpe": 7666,
      "Ġflat": 7667,
      "eth": 7668,
      "Ġpreservation": 7669,
      "ipl": 7670,
      "Ġevolve": 7671,
      "Ġ32": 7672,
      "Ġaugmenting": 7673,
      "Ġscreening": 7674,
      "bon": 7675,
      "aten": 7676,
      "Ġtranslated": 7677,
      "ĠTransport": 7678,
      "Ġhinders": 7679,
      "Ġmy": 7680,
      "ĠFuzzy": 7681,
      "Ġclar": 7682,
      "ĠBas": 7683,
      "Ġmainstream": 7684,
      "Ġformulas": 7685,
      "Ġmotivation": 7686,
      "bounded": 7687,
      "ĠEarly": 7688,
      "ĠAtari": 7689,
      "Ġrefers": 7690,
      "Ġcoefficient": 7691,
      "Ġstabil": 7692,
      "tification": 7693,
      "EE": 7694,
      "Ġcard": 7695,
      "ĠAB": 7696,
      "ĠThough": 7697,
      "Ġinstability": 7698,
      "Ġsymbol": 7699,
      "Ġdiscipl": 7700,
      "ples": 7701,
      "Ġbootstra": 7702,
      "Ġstring": 7703,
      "ĠSuper": 7704,
      "Ġwhite": 7705,
      "ĠIns": 7706,
      "oted": 7707,
      "ĠFuture": 7708,
      "Ġintr": 7709,
      "ĠComplexity": 7710,
      "Ġcontinue": 7711,
      "Ġsatisfying": 7712,
      "Ġcustomers": 7713,
      "Ġcountries": 7714,
      "Ġassociations": 7715,
      "ĠTrust": 7716,
      "hold": 7717,
      "Ġmild": 7718,
      "Ġreverse": 7719,
      "utor": 7720,
      "ĠFollowing": 7721,
      "Ġrepeti": 7722,
      "Ġcollective": 7723,
      "Ġprogressively": 7724,
      "ĠFinding": 7725,
      "Ġmappings": 7726,
      "ĠBoolean": 7727,
      "Ġdecreases": 7728,
      "Ġcompanies": 7729,
      "-$": 7730,
      "Ġfed": 7731,
      "Ġstore": 7732,
      "Ġarising": 7733,
      "balanced": 7734,
      "Ġcoreference": 7735,
      "ĠScientific": 7736,
      "Ġfaithfulness": 7737,
      "Ġcontrollable": 7738,
      "Ġold": 7739,
      "Ġcreative": 7740,
      "Ġequivariant": 7741,
      "etero": 7742,
      "ĠHard": 7743,
      "Ġtokenization": 7744,
      "Ġproprietary": 7745,
      "Ġtackling": 7746,
      "Ġbrief": 7747,
      "directed": 7748,
      "Ġtrigger": 7749,
      "UGE": 7750,
      "Ġren": 7751,
      "Al": 7752,
      "FS": 7753,
      "})": 7754,
      "ĠCre": 7755,
      "ĠBatch": 7756,
      "ĠConn": 7757,
      "Ġrevision": 7758,
      "Ġimplies": 7759,
      "24": 7760,
      "squ": 7761,
      "ĠBetter": 7762,
      "ĠSQL": 7763,
      "iration": 7764,
      "ourn": 7765,
      "Ġextractive": 7766,
      "Ġsynthesize": 7767,
      "Ġfootprint": 7768,
      "non": 7769,
      "Ġturns": 7770,
      "Ġcoordination": 7771,
      "ĠID": 7772,
      "Ġprocessed": 7773,
      "Ġlayout": 7774,
      "Ġhyperbolic": 7775,
      "Ġtransforming": 7776,
      "ervoir": 7777,
      "ĠTechn": 7778,
      "Ġaxi": 7779,
      "99": 7780,
      "elong": 7781,
      "Ġstock": 7782,
      "ĠGit": 7783,
      "Ġscienti": 7784,
      "sourced": 7785,
      "erg": 7786,
      "Ġdiscusses": 7787,
      "ĠStructural": 7788,
      "document": 7789,
      "Ġtrace": 7790,
      "Ġautomate": 7791,
      "ĠShared": 7792,
      "ĠTraject": 7793,
      "Ġviable": 7794,
      "Ġultimately": 7795,
      "GL": 7796,
      "Ġdetected": 7797,
      "Ġunfair": 7798,
      "fall": 7799,
      "Ġnative": 7800,
      "Ġallowed": 7801,
      "ĠHindi": 7802,
      "ĠResource": 7803,
      "Ġdegrade": 7804,
      "lapping": 7805,
      "Ġsecure": 7806,
      "Ġtemplates": 7807,
      "Ġcrowd": 7808,
      "Ġencompassing": 7809,
      "riving": 7810,
      "Ġinterpol": 7811,
      "Ġrepresentational": 7812,
      "ĠBio": 7813,
      "Form": 7814,
      "delta": 7815,
      "Ġing": 7816,
      "Ġgather": 7817,
      "Ġmodifying": 7818,
      "Ġsetups": 7819,
      "ĠIndian": 7820,
      "XAI": 7821,
      "rm": 7822,
      "ĠDisease": 7823,
      "adequ": 7824,
      "weighted": 7825,
      "Ġignoring": 7826,
      "Ġexpressiveness": 7827,
      "NLI": 7828,
      "Ġchun": 7829,
      "Ġjail": 7830,
      "Ġunreliable": 7831,
      "ĠIni": 7832,
      "Ġtargeting": 7833,
      "Ġinterested": 7834,
      "Ġtrials": 7835,
      "ĠSingle": 7836,
      "Ġinaccurate": 7837,
      "17": 7838,
      "ane": 7839,
      "utral": 7840,
      "acles": 7841,
      "KGs": 7842,
      "TD": 7843,
      "Ġacts": 7844,
      "ecause": 7845,
      "ĠTheoretical": 7846,
      "Hub": 7847,
      "Ġsem": 7848,
      "ĠWithout": 7849,
      "Ġnormalized": 7850,
      "otypes": 7851,
      "Ġentirely": 7852,
      "Ġperceptron": 7853,
      "$)": 7854,
      "ON": 7855,
      "ĠODE": 7856,
      "Ġuniformly": 7857,
      "base": 7858,
      "haus": 7859,
      "ĠCLI": 7860,
      "Ġrequests": 7861,
      "Ġemerge": 7862,
      "Ġ99": 7863,
      "Ġstyles": 7864,
      "missions": 7865,
      "Ġpercentage": 7866,
      "human": 7867,
      "idential": 7868,
      "aker": 7869,
      "function": 7870,
      "asi": 7871,
      "Ġlet": 7872,
      "ĠRecommend": 7873,
      "PR": 7874,
      "Ġmultic": 7875,
      "sibility": 7876,
      "Ġtransmission": 7877,
      "Ġinstit": 7878,
      "ĠDialog": 7879,
      "vin": 7880,
      "Ġactionable": 7881,
      "Ġvulnerabilities": 7882,
      "ĠCombining": 7883,
      "Ġeliminate": 7884,
      "Ġcycle": 7885,
      "ĠCollaborative": 7886,
      "Ġexcep": 7887,
      "ĠDE": 7888,
      "Ġempath": 7889,
      "ĠImitation": 7890,
      "Ġquantitatively": 7891,
      "Ġopportunity": 7892,
      "Cs": 7893,
      "loss": 7894,
      "Ġleft": 7895,
      "ĠPoint": 7896,
      "Ġadopts": 7897,
      "Ġassumes": 7898,
      "Ġdrive": 7899,
      "Ġarbitrarily": 7900,
      "interpret": 7901,
      "Ġordinary": 7902,
      "arth": 7903,
      "Ġscalar": 7904,
      "Ġdefault": 7905,
      "cription": 7906,
      "Ġmusic": 7907,
      "Ġur": 7908,
      "vention": 7909,
      "ĠDiscrimin": 7910,
      "Ġsocietal": 7911,
      "Ġoccup": 7912,
      "ora": 7913,
      "End": 7914,
      "80": 7915,
      "Ġinadequ": 7916,
      "asm": 7917,
      "Ġnoun": 7918,
      "zen": 7919,
      "asy": 7920,
      "ĠLI": 7921,
      "Ġdetector": 7922,
      "Ġstere": 7923,
      "ĠRank": 7924,
      "ĠIdentifying": 7925,
      "Ġvaries": 7926,
      "Ġdistinguishing": 7927,
      "ĠConstraint": 7928,
      "ragm": 7929,
      "ched": 7930,
      "Ġdisambiguation": 7931,
      "Ġindirect": 7932,
      "Ġcorresponds": 7933,
      "Ġmeanings": 7934,
      "Ġlogarithmic": 7935,
      "Ġaware": 7936,
      "ĠBecause": 7937,
      "Ġinterpreted": 7938,
      "Ġsupply": 7939,
      "Ġconcise": 7940,
      "ĠMobile": 7941,
      "ai": 7942,
      "left": 7943,
      "Ġdistant": 7944,
      "cost": 7945,
      "Ġposed": 7946,
      "Ġcalibrated": 7947,
      "Ġinfluences": 7948,
      "ĠGuided": 7949,
      "Ġsquared": 7950,
      "Ġvoice": 7951,
      "Ġspecifications": 7952,
      "cible": 7953,
      "MIC": 7954,
      "Ġanomalous": 7955,
      "Ġrationales": 7956,
      "Seek": 7957,
      "Ġsacrificing": 7958,
      "friendly": 7959,
      "passing": 7960,
      "Ġcontradic": 7961,
      "ĠAdd": 7962,
      "Ġsket": 7963,
      "ortality": 7964,
      "bert": 7965,
      "Ġcomputes": 7966,
      "ĠExperts": 7967,
      "Ġplaying": 7968,
      "Ġthoroughly": 7969,
      "position": 7970,
      "Ġgeneralizing": 7971,
      "Ġclassified": 7972,
      "Ġreaching": 7973,
      "ĠLaplacian": 7974,
      "istry": 7975,
      "Ġgiving": 7976,
      "Ġapproximated": 7977,
      "Ġmonotonic": 7978,
      "orean": 7979,
      "ibly": 7980,
      "ĠRLHF": 7981,
      "Ġimpossible": 7982,
      "Mix": 7983,
      "Ġunstable": 7984,
      "ĠInteractive": 7985,
      "Ġinnovations": 7986,
      "Ġemphasize": 7987,
      "ĠSpectral": 7988,
      "Ġ(\\": 7989,
      "Ġuntil": 7990,
      "Ġintegral": 7991,
      "Ġ95": 7992,
      "Ġcells": 7993,
      "ĠComparative": 7994,
      "Ġrevisit": 7995,
      "Ġfix": 7996,
      "Ġopens": 7997,
      "Ġinstru": 7998,
      "ĠQuery": 7999
    },
    "merges": [
      [
        "i",
        "n"
      ],
      [
        "Ġ",
        "t"
      ],
      [
        "Ġ",
        "a"
      ],
      [
        "o",
        "n"
      ],
      [
        "t",
        "i"
      ],
      [
        "e",
        "r"
      ],
      [
        "e",
        "n"
      ],
      [
        "r",
        "e"
      ],
      [
        "Ġt",
        "h"
      ],
      [
        "o",
        "r"
      ],
      [
        "in",
        "g"
      ],
      [
        "a",
        "l"
      ],
      [
        "Ġ",
        "s"
      ],
      [
        "e",
        "s"
      ],
      [
        "a",
        "t"
      ],
      [
        "ti",
        "on"
      ],
      [
        "Ġ",
        "c"
      ],
      [
        "Ġth",
        "e"
      ],
      [
        "Ġ",
        "p"
      ],
      [
        "Ġ",
        "o"
      ],
      [
        "a",
        "r"
      ],
      [
        "e",
        "d"
      ],
      [
        "a",
        "n"
      ],
      [
        "i",
        "s"
      ],
      [
        "Ġ",
        "m"
      ],
      [
        "Ġ",
        "d"
      ],
      [
        "r",
        "o"
      ],
      [
        "Ġ",
        "f"
      ],
      [
        "Ġa",
        "n"
      ],
      [
        "Ġ",
        "in"
      ],
      [
        "i",
        "t"
      ],
      [
        "Ġ",
        "w"
      ],
      [
        "l",
        "e"
      ],
      [
        "i",
        "c"
      ],
      [
        "Ġo",
        "f"
      ],
      [
        "a",
        "tion"
      ],
      [
        "Ġan",
        "d"
      ],
      [
        "en",
        "t"
      ],
      [
        "e",
        "l"
      ],
      [
        "a",
        "s"
      ],
      [
        "Ġ",
        "b"
      ],
      [
        "e",
        "t"
      ],
      [
        "Ġt",
        "o"
      ],
      [
        "Ġ",
        "re"
      ],
      [
        "Ġ",
        "e"
      ],
      [
        "c",
        "h"
      ],
      [
        "o",
        "d"
      ],
      [
        "m",
        "p"
      ],
      [
        "r",
        "a"
      ],
      [
        "u",
        "r"
      ],
      [
        "u",
        "s"
      ],
      [
        "c",
        "e"
      ],
      [
        "Ġ",
        "n"
      ],
      [
        "Ġ",
        "<"
      ],
      [
        "v",
        "e"
      ],
      [
        "l",
        "y"
      ],
      [
        "Ġ",
        "l"
      ],
      [
        "e",
        "c"
      ],
      [
        "Ġp",
        "ro"
      ],
      [
        "s",
        "t"
      ],
      [
        "Ġ",
        "h"
      ],
      [
        "u",
        "l"
      ],
      [
        "Ġf",
        "or"
      ],
      [
        "u",
        "t"
      ],
      [
        "g",
        "e"
      ],
      [
        "Ġ",
        "T"
      ],
      [
        "it",
        "h"
      ],
      [
        "u",
        "n"
      ],
      [
        "Ġc",
        "o"
      ],
      [
        "od",
        "el"
      ],
      [
        "Ġ",
        "L"
      ],
      [
        "o",
        "w"
      ],
      [
        "i",
        "m"
      ],
      [
        "Ġ",
        "g"
      ],
      [
        "Ġ",
        "on"
      ],
      [
        "v",
        "er"
      ],
      [
        "i",
        "g"
      ],
      [
        "ar",
        "n"
      ],
      [
        "Ġc",
        "on"
      ],
      [
        "a",
        "b"
      ],
      [
        "C",
        "T"
      ],
      [
        "Ġm",
        "odel"
      ],
      [
        "Ġe",
        "x"
      ],
      [
        "at",
        "e"
      ],
      [
        "re",
        "s"
      ],
      [
        "Ġ",
        "M"
      ],
      [
        "Ġth",
        "at"
      ],
      [
        "i",
        "f"
      ],
      [
        "Ġs",
        "t"
      ],
      [
        "f",
        "or"
      ],
      [
        "arn",
        "ing"
      ],
      [
        "Ġ",
        "is"
      ],
      [
        "p",
        "er"
      ],
      [
        "i",
        "l"
      ],
      [
        "Ġ",
        "("
      ],
      [
        "Ġ",
        "A"
      ],
      [
        "a",
        "ch"
      ],
      [
        "Ġw",
        "ith"
      ],
      [
        "ti",
        "c"
      ],
      [
        "i",
        "d"
      ],
      [
        "Ġw",
        "e"
      ],
      [
        "o",
        "s"
      ],
      [
        "Ġ",
        "le"
      ],
      [
        "e",
        "m"
      ],
      [
        "c",
        "t"
      ],
      [
        "in",
        "e"
      ],
      [
        "for",
        "m"
      ],
      [
        "Ġd",
        "at"
      ],
      [
        "Ġ",
        "C"
      ],
      [
        "it",
        "y"
      ],
      [
        "t",
        "h"
      ],
      [
        "Ġ",
        "I"
      ],
      [
        "o",
        "l"
      ],
      [
        "q",
        "u"
      ],
      [
        "i",
        "z"
      ],
      [
        "p",
        "p"
      ],
      [
        "Ġ",
        "W"
      ],
      [
        "m",
        "ent"
      ],
      [
        "Ġw",
        "h"
      ],
      [
        "or",
        "k"
      ],
      [
        "ĠT",
        "h"
      ],
      [
        "Ġ",
        "S"
      ],
      [
        "o",
        "m"
      ],
      [
        "Ġa",
        "l"
      ],
      [
        "Ġa",
        "s"
      ],
      [
        "t",
        "s"
      ],
      [
        "a",
        "ge"
      ],
      [
        "r",
        "i"
      ],
      [
        "t",
        "er"
      ],
      [
        "Ġs",
        "u"
      ],
      [
        "es",
        "s"
      ],
      [
        "Ġco",
        "mp"
      ],
      [
        "ti",
        "ve"
      ],
      [
        "Ġ",
        "us"
      ],
      [
        "i",
        "r"
      ],
      [
        "g",
        "u"
      ],
      [
        "Ġth",
        "is"
      ],
      [
        "a",
        "in"
      ],
      [
        "ĠI",
        "n"
      ],
      [
        "Ġa",
        "pp"
      ],
      [
        "ĠW",
        "e"
      ],
      [
        "Ġ",
        "v"
      ],
      [
        "ra",
        "in"
      ],
      [
        "S",
        "T"
      ],
      [
        "Ġm",
        "et"
      ],
      [
        "R",
        "A"
      ],
      [
        "ation",
        "s"
      ],
      [
        "L",
        "E"
      ],
      [
        "w",
        "ork"
      ],
      [
        "s",
        "i"
      ],
      [
        "Ġre",
        "s"
      ],
      [
        "E",
        "N"
      ],
      [
        "I",
        "T"
      ],
      [
        "an",
        "gu"
      ],
      [
        "A",
        "B"
      ],
      [
        "Ġb",
        "e"
      ],
      [
        "a",
        "m"
      ],
      [
        "S",
        "U"
      ],
      [
        "an",
        "ce"
      ],
      [
        "Ġ",
        "D"
      ],
      [
        "J",
        "E"
      ],
      [
        "o",
        "re"
      ],
      [
        "f",
        "f"
      ],
      [
        "EN",
        "D"
      ],
      [
        "ST",
        "RA"
      ],
      [
        "SU",
        "B"
      ],
      [
        "T",
        "IT"
      ],
      [
        "JE",
        "CT"
      ],
      [
        "TIT",
        "LE"
      ],
      [
        "STRA",
        "CT"
      ],
      [
        "AB",
        "STRACT"
      ],
      [
        "SUB",
        "JECT"
      ],
      [
        "i",
        "mp"
      ],
      [
        "en",
        "ce"
      ],
      [
        "en",
        "er"
      ],
      [
        "Ġdat",
        "a"
      ],
      [
        "is",
        "t"
      ],
      [
        "Ġp",
        "er"
      ],
      [
        "a",
        "c"
      ],
      [
        "al",
        "ly"
      ],
      [
        "Ġb",
        "y"
      ],
      [
        "Ġd",
        "e"
      ],
      [
        "v",
        "el"
      ],
      [
        "Ġ",
        "un"
      ],
      [
        "o",
        "t"
      ],
      [
        "Ġ",
        "en"
      ],
      [
        "Ġn",
        "e"
      ],
      [
        "Ġa",
        "re"
      ],
      [
        "u",
        "re"
      ],
      [
        "h",
        "od"
      ],
      [
        "Ġa",
        "c"
      ],
      [
        "f",
        "er"
      ],
      [
        "angu",
        "age"
      ],
      [
        "Ġ",
        "E"
      ],
      [
        "Ġle",
        "arning"
      ],
      [
        "Ġmodel",
        "s"
      ],
      [
        "Ġmet",
        "hod"
      ],
      [
        "Ġ",
        "R"
      ],
      [
        "Ġa",
        "d"
      ],
      [
        "Ġp",
        "re"
      ],
      [
        "ĠL",
        "e"
      ],
      [
        "ar",
        "i"
      ],
      [
        "Ġ",
        "F"
      ],
      [
        "ig",
        "h"
      ],
      [
        "Ġ",
        "P"
      ],
      [
        "Ġ",
        "imp"
      ],
      [
        "ĠLe",
        "arning"
      ],
      [
        "Ġs",
        "h"
      ],
      [
        "d",
        "ing"
      ],
      [
        "r",
        "an"
      ],
      [
        "ro",
        "m"
      ],
      [
        "Ġin",
        "t"
      ],
      [
        "ti",
        "m"
      ],
      [
        "if",
        "ic"
      ],
      [
        "ach",
        "ine"
      ],
      [
        "p",
        "os"
      ],
      [
        "as",
        "ed"
      ],
      [
        "ab",
        "le"
      ],
      [
        "as",
        "k"
      ],
      [
        "d",
        "i"
      ],
      [
        "Ġc",
        "l"
      ],
      [
        "Ġf",
        "rom"
      ],
      [
        "Ġg",
        "ener"
      ],
      [
        "at",
        "ed"
      ],
      [
        "d",
        "u"
      ],
      [
        "tion",
        "s"
      ],
      [
        "b",
        "le"
      ],
      [
        "a",
        "p"
      ],
      [
        "ig",
        "n"
      ],
      [
        "Ġc",
        "an"
      ],
      [
        "Ġ",
        "O"
      ],
      [
        "Ġs",
        "p"
      ],
      [
        "u",
        "m"
      ],
      [
        "er",
        "s"
      ],
      [
        "Ġpro",
        "pos"
      ],
      [
        "Ġ",
        "G"
      ],
      [
        "Ġ",
        "N"
      ],
      [
        "ĠTh",
        "e"
      ],
      [
        "e",
        "p"
      ],
      [
        "e",
        "x"
      ],
      [
        "Ġapp",
        "ro"
      ],
      [
        "ic",
        "h"
      ],
      [
        "Ġper",
        "form"
      ],
      [
        "an",
        "t"
      ],
      [
        "Ġ",
        "it"
      ],
      [
        "p",
        "l"
      ],
      [
        "r",
        "u"
      ],
      [
        "ic",
        "i"
      ],
      [
        "Ġt",
        "ask"
      ],
      [
        "o",
        "c"
      ],
      [
        "ur",
        "al"
      ],
      [
        "ec",
        "t"
      ],
      [
        "Ġt",
        "rain"
      ],
      [
        "et",
        "work"
      ],
      [
        "as",
        "s"
      ],
      [
        "o",
        "us"
      ],
      [
        "res",
        "ent"
      ],
      [
        "o",
        "g"
      ],
      [
        "Ġcon",
        "t"
      ],
      [
        "Ġc",
        "h"
      ],
      [
        "Ġwh",
        "ich"
      ],
      [
        "Ġe",
        "ff"
      ],
      [
        "Ġa",
        "t"
      ],
      [
        "al",
        "l"
      ],
      [
        "ic",
        "al"
      ],
      [
        "Ġ",
        "B"
      ],
      [
        "Ġs",
        "y"
      ],
      [
        "Ġe",
        "v"
      ],
      [
        "a",
        "y"
      ],
      [
        "en",
        "ti"
      ],
      [
        "Ġs",
        "e"
      ],
      [
        "d",
        "er"
      ],
      [
        "t",
        "ing"
      ],
      [
        "Ġ",
        "H"
      ],
      [
        "ĠM",
        "achine"
      ],
      [
        "c",
        "tion"
      ],
      [
        "p",
        "h"
      ],
      [
        "Ġp",
        "ar"
      ],
      [
        "al",
        "u"
      ],
      [
        "&",
        "#"
      ],
      [
        "t",
        "en"
      ],
      [
        "m",
        "s"
      ],
      [
        "a",
        "g"
      ],
      [
        "Ġ",
        "or"
      ],
      [
        "Ġo",
        "ur"
      ],
      [
        "Ġappro",
        "ach"
      ],
      [
        "ul",
        "ti"
      ],
      [
        "Ġsh",
        "ow"
      ],
      [
        "g",
        "or"
      ],
      [
        "iz",
        "ation"
      ],
      [
        "ent",
        "s"
      ],
      [
        "Ġp",
        "a"
      ],
      [
        "o",
        "mp"
      ],
      [
        "d",
        "ic"
      ],
      [
        "as",
        "et"
      ],
      [
        "ex",
        "t"
      ],
      [
        "il",
        "ity"
      ],
      [
        "Ġperform",
        "ance"
      ],
      [
        "en",
        "c"
      ],
      [
        "o",
        "p"
      ],
      [
        "Ġ",
        "k"
      ],
      [
        "ut",
        "ation"
      ],
      [
        "i",
        "on"
      ],
      [
        "d",
        "s"
      ],
      [
        "s",
        "e"
      ],
      [
        "ran",
        "s"
      ],
      [
        "Ġdat",
        "aset"
      ],
      [
        "u",
        "al"
      ],
      [
        "r",
        "ate"
      ],
      [
        "es",
        "e"
      ],
      [
        "i",
        "es"
      ],
      [
        "gor",
        "ith"
      ],
      [
        "c",
        "ess"
      ],
      [
        "er",
        "e"
      ],
      [
        "L",
        "M"
      ],
      [
        "i",
        "e"
      ],
      [
        "ra",
        "m"
      ],
      [
        "el",
        "l"
      ],
      [
        "ĠL",
        "anguage"
      ],
      [
        "Ġres",
        "ul"
      ],
      [
        "Ġ",
        "qu"
      ],
      [
        "Ġn",
        "etwork"
      ],
      [
        "e",
        "ch"
      ],
      [
        "Ġo",
        "p"
      ],
      [
        "st",
        "em"
      ],
      [
        "Ġal",
        "gorith"
      ],
      [
        "ri",
        "b"
      ],
      [
        "Ġd",
        "if"
      ],
      [
        "Ġs",
        "c"
      ],
      [
        "ra",
        "ph"
      ],
      [
        "Ġin",
        "c"
      ],
      [
        "es",
        "t"
      ],
      [
        "u",
        "g"
      ],
      [
        "Ġcl",
        "ass"
      ],
      [
        "Ġmethod",
        "s"
      ],
      [
        "ra",
        "c"
      ],
      [
        "Ġtrain",
        "ing"
      ],
      [
        "u",
        "d"
      ],
      [
        "Ġf",
        "e"
      ],
      [
        "a",
        "re"
      ],
      [
        "on",
        "st"
      ],
      [
        "v",
        "es"
      ],
      [
        "Ġpro",
        "ble"
      ],
      [
        "Ġn",
        "o"
      ],
      [
        "Ġin",
        "ter"
      ],
      [
        "a",
        "ct"
      ],
      [
        "l",
        "ic"
      ],
      [
        "Ġb",
        "o"
      ],
      [
        "Ġre",
        "p"
      ],
      [
        "at",
        "ing"
      ],
      [
        "u",
        "tion"
      ],
      [
        "n",
        "ow"
      ],
      [
        "a",
        "mp"
      ],
      [
        "Ġsy",
        "stem"
      ],
      [
        "Ġac",
        "c"
      ],
      [
        "Ġm",
        "ulti"
      ],
      [
        "ĠC",
        "omp"
      ],
      [
        "a",
        "d"
      ],
      [
        "a",
        "tive"
      ],
      [
        "a",
        "k"
      ],
      [
        "al",
        "y"
      ],
      [
        "Ġd",
        "em"
      ],
      [
        "ĠTh",
        "is"
      ],
      [
        "Ġpa",
        "per"
      ],
      [
        "si",
        "on"
      ],
      [
        "v",
        "en"
      ],
      [
        "th",
        "er"
      ],
      [
        "Ġa",
        "r"
      ],
      [
        "ac",
        "k"
      ],
      [
        "ar",
        "ch"
      ],
      [
        "Ġb",
        "et"
      ],
      [
        "a",
        "ve"
      ],
      [
        "Ġpre",
        "dic"
      ],
      [
        "us",
        "t"
      ],
      [
        "v",
        "id"
      ],
      [
        "Ġv",
        "ari"
      ],
      [
        "3",
        "9"
      ],
      [
        "Ġo",
        "ut"
      ],
      [
        "Ġd",
        "i"
      ],
      [
        "m",
        "b"
      ],
      [
        "Ġl",
        "anguage"
      ],
      [
        "Ġus",
        "ing"
      ],
      [
        "Ġ",
        "U"
      ],
      [
        "Ġimp",
        "ro"
      ],
      [
        "Ġre",
        "c"
      ],
      [
        "Ġex",
        "per"
      ],
      [
        "Ġpropos",
        "e"
      ],
      [
        "o",
        "ur"
      ],
      [
        "u",
        "res"
      ],
      [
        "ar",
        "ge"
      ],
      [
        "or",
        "t"
      ],
      [
        "Ġs",
        "et"
      ],
      [
        "Ġh",
        "igh"
      ],
      [
        "ru",
        "ct"
      ],
      [
        "Ġd",
        "is"
      ],
      [
        "Ġsu",
        "ch"
      ],
      [
        "Ġtask",
        "s"
      ],
      [
        "b",
        "ased"
      ],
      [
        "an",
        "d"
      ],
      [
        "Ġex",
        "pl"
      ],
      [
        "Ġw",
        "ork"
      ],
      [
        "Ġh",
        "ave"
      ],
      [
        "Ġo",
        "ver"
      ],
      [
        "l",
        "ed"
      ],
      [
        "ul",
        "ar"
      ],
      [
        "Ġd",
        "es"
      ],
      [
        "Ġresul",
        "ts"
      ],
      [
        "Ġev",
        "alu"
      ],
      [
        "l",
        "es"
      ],
      [
        "Ġdif",
        "fer"
      ],
      [
        "at",
        "es"
      ],
      [
        "ram",
        "e"
      ],
      [
        "ti",
        "es"
      ],
      [
        "Ġo",
        "b"
      ],
      [
        "ab",
        "ility"
      ],
      [
        "Ġdem",
        "onst"
      ],
      [
        "Ġth",
        "ese"
      ],
      [
        "Ġt",
        "rans"
      ],
      [
        "rame",
        "work"
      ],
      [
        "tic",
        "al"
      ],
      [
        "Ġop",
        "tim"
      ],
      [
        "ĠO",
        "ur"
      ],
      [
        "m",
        "ar"
      ],
      [
        "ar",
        "d"
      ],
      [
        "form",
        "ation"
      ],
      [
        "un",
        "d"
      ],
      [
        "ver",
        "s"
      ],
      [
        "Ġrep",
        "resent"
      ],
      [
        "an",
        "c"
      ],
      [
        "n",
        "i"
      ],
      [
        "Ġh",
        "as"
      ],
      [
        "Ġun",
        "der"
      ],
      [
        "Ġd",
        "ist"
      ],
      [
        "ug",
        "h"
      ],
      [
        "Ġthe",
        "ir"
      ],
      [
        "Ġre",
        "l"
      ],
      [
        "i",
        "le"
      ],
      [
        "v",
        "ing"
      ],
      [
        "on",
        "g"
      ],
      [
        "e",
        "ver"
      ],
      [
        "o",
        "f"
      ],
      [
        "Ġan",
        "aly"
      ],
      [
        "u",
        "p"
      ],
      [
        "v",
        "i"
      ],
      [
        "p",
        "ec"
      ],
      [
        "Ġcon",
        "s"
      ],
      [
        "Ġf",
        "ramework"
      ],
      [
        "Ġ",
        "ro"
      ],
      [
        "ĠComp",
        "utation"
      ],
      [
        "Ġs",
        "ign"
      ],
      [
        "w",
        "e"
      ],
      [
        "Ġa",
        "g"
      ],
      [
        "Ġk",
        "now"
      ],
      [
        "r",
        "ic"
      ],
      [
        "o",
        "st"
      ],
      [
        "s",
        "s"
      ],
      [
        "Ġeff",
        "ec"
      ],
      [
        "Ġn",
        "ot"
      ],
      [
        "ment",
        "s"
      ],
      [
        "im",
        "e"
      ],
      [
        "LM",
        "s"
      ],
      [
        "di",
        "tion"
      ],
      [
        "Ġpro",
        "vid"
      ],
      [
        "a",
        "il"
      ],
      [
        "Ġne",
        "w"
      ],
      [
        "Ġ",
        "r"
      ],
      [
        "en",
        "d"
      ],
      [
        "ro",
[...]
